{
  "version": "1.0",
  "truncation": null,
  "padding": null,
  "added_tokens": [
    {
      "id": 0,
      "content": "[PAD]",
      "single_word": false,
      "lstrip": false,
      "rstrip": false,
      "normalized": false,
      "special": true
    },
    {
      "id": 1,
      "content": "[UNK]",
      "single_word": false,
      "lstrip": false,
      "rstrip": false,
      "normalized": false,
      "special": true
    },
    {
      "id": 2,
      "content": "[CLS]",
      "single_word": false,
      "lstrip": false,
      "rstrip": false,
      "normalized": false,
      "special": true
    },
    {
      "id": 3,
      "content": "[SEP]",
      "single_word": false,
      "lstrip": false,
      "rstrip": false,
      "normalized": false,
      "special": true
    },
    {
      "id": 4,
      "content": "[MASK]",
      "single_word": false,
      "lstrip": false,
      "rstrip": false,
      "normalized": false,
      "special": true
    }
  ],
  "normalizer": {
    "type": "Sequence",
    "normalizers": [
      {
        "type": "Lowercase"
      }
    ]
  },
  "pre_tokenizer": {
    "type": "ByteLevel",
    "add_prefix_space": true,
    "trim_offsets": true,
    "use_regex": true
  },
  "post_processor": null,
  "decoder": {
    "type": "ByteLevel",
    "add_prefix_space": true,
    "trim_offsets": true,
    "use_regex": true
  },
  "model": {
    "type": "BPE",
    "dropout": null,
    "unk_token": null,
    "continuing_subword_prefix": null,
    "end_of_word_suffix": null,
    "fuse_unk": false,
    "vocab": {
      "[PAD]": 0,
      "[UNK]": 1,
      "[CLS]": 2,
      "[SEP]": 3,
      "[MASK]": 4,
      "!": 5,
      "\"": 6,
      "#": 7,
      "$": 8,
      "%": 9,
      "&": 10,
      "'": 11,
      "(": 12,
      ")": 13,
      "*": 14,
      "+": 15,
      ",": 16,
      "-": 17,
      ".": 18,
      "/": 19,
      "0": 20,
      "1": 21,
      "2": 22,
      "3": 23,
      "4": 24,
      "5": 25,
      "6": 26,
      "7": 27,
      "8": 28,
      "9": 29,
      ":": 30,
      ";": 31,
      "<": 32,
      "=": 33,
      ">": 34,
      "?": 35,
      "@": 36,
      "A": 37,
      "B": 38,
      "C": 39,
      "D": 40,
      "E": 41,
      "F": 42,
      "G": 43,
      "H": 44,
      "I": 45,
      "J": 46,
      "K": 47,
      "L": 48,
      "M": 49,
      "N": 50,
      "O": 51,
      "P": 52,
      "Q": 53,
      "R": 54,
      "S": 55,
      "T": 56,
      "U": 57,
      "V": 58,
      "W": 59,
      "X": 60,
      "Y": 61,
      "Z": 62,
      "[": 63,
      "\\": 64,
      "]": 65,
      "^": 66,
      "_": 67,
      "`": 68,
      "a": 69,
      "b": 70,
      "c": 71,
      "d": 72,
      "e": 73,
      "f": 74,
      "g": 75,
      "h": 76,
      "i": 77,
      "j": 78,
      "k": 79,
      "l": 80,
      "m": 81,
      "n": 82,
      "o": 83,
      "p": 84,
      "q": 85,
      "r": 86,
      "s": 87,
      "t": 88,
      "u": 89,
      "v": 90,
      "w": 91,
      "x": 92,
      "y": 93,
      "z": 94,
      "{": 95,
      "|": 96,
      "}": 97,
      "~": 98,
      "¡": 99,
      "¢": 100,
      "£": 101,
      "¤": 102,
      "¥": 103,
      "¦": 104,
      "§": 105,
      "¨": 106,
      "©": 107,
      "ª": 108,
      "«": 109,
      "¬": 110,
      "®": 111,
      "¯": 112,
      "°": 113,
      "±": 114,
      "²": 115,
      "³": 116,
      "´": 117,
      "µ": 118,
      "¶": 119,
      "·": 120,
      "¸": 121,
      "¹": 122,
      "º": 123,
      "»": 124,
      "¼": 125,
      "½": 126,
      "¾": 127,
      "¿": 128,
      "À": 129,
      "Á": 130,
      "Â": 131,
      "Ã": 132,
      "Ä": 133,
      "Å": 134,
      "Æ": 135,
      "Ç": 136,
      "È": 137,
      "É": 138,
      "Ê": 139,
      "Ë": 140,
      "Ì": 141,
      "Í": 142,
      "Î": 143,
      "Ï": 144,
      "Ð": 145,
      "Ñ": 146,
      "Ò": 147,
      "Ó": 148,
      "Ô": 149,
      "Õ": 150,
      "Ö": 151,
      "×": 152,
      "Ø": 153,
      "Ù": 154,
      "Ú": 155,
      "Û": 156,
      "Ü": 157,
      "Ý": 158,
      "Þ": 159,
      "ß": 160,
      "à": 161,
      "á": 162,
      "â": 163,
      "ã": 164,
      "ä": 165,
      "å": 166,
      "æ": 167,
      "ç": 168,
      "è": 169,
      "é": 170,
      "ê": 171,
      "ë": 172,
      "ì": 173,
      "í": 174,
      "î": 175,
      "ï": 176,
      "ð": 177,
      "ñ": 178,
      "ò": 179,
      "ó": 180,
      "ô": 181,
      "õ": 182,
      "ö": 183,
      "÷": 184,
      "ø": 185,
      "ù": 186,
      "ú": 187,
      "û": 188,
      "ü": 189,
      "ý": 190,
      "þ": 191,
      "ÿ": 192,
      "Ā": 193,
      "ā": 194,
      "Ă": 195,
      "ă": 196,
      "Ą": 197,
      "ą": 198,
      "Ć": 199,
      "ć": 200,
      "Ĉ": 201,
      "ĉ": 202,
      "Ċ": 203,
      "ċ": 204,
      "Č": 205,
      "č": 206,
      "Ď": 207,
      "ď": 208,
      "Đ": 209,
      "đ": 210,
      "Ē": 211,
      "ē": 212,
      "Ĕ": 213,
      "ĕ": 214,
      "Ė": 215,
      "ė": 216,
      "Ę": 217,
      "ę": 218,
      "Ě": 219,
      "ě": 220,
      "Ĝ": 221,
      "ĝ": 222,
      "Ğ": 223,
      "ğ": 224,
      "Ġ": 225,
      "ġ": 226,
      "Ģ": 227,
      "ģ": 228,
      "Ĥ": 229,
      "ĥ": 230,
      "Ħ": 231,
      "ħ": 232,
      "Ĩ": 233,
      "ĩ": 234,
      "Ī": 235,
      "ī": 236,
      "Ĭ": 237,
      "ĭ": 238,
      "Į": 239,
      "į": 240,
      "İ": 241,
      "ı": 242,
      "Ĳ": 243,
      "ĳ": 244,
      "Ĵ": 245,
      "ĵ": 246,
      "Ķ": 247,
      "ķ": 248,
      "ĸ": 249,
      "Ĺ": 250,
      "ĺ": 251,
      "Ļ": 252,
      "ļ": 253,
      "Ľ": 254,
      "ľ": 255,
      "Ŀ": 256,
      "ŀ": 257,
      "Ł": 258,
      "ł": 259,
      "Ń": 260,
      "in": 261,
      "ti": 262,
      "on": 263,
      "ing": 264,
      "re": 265,
      "Ġa": 266,
      "tion": 267,
      "ic": 268,
      "Ġs": 269,
      "Ġp": 270,
      "or": 271,
      "en": 272,
      "er": 273,
      "Ġc": 274,
      "ar": 275,
      "Ġf": 276,
      "Ġt": 277,
      "al": 278,
      "Ġm": 279,
      "Ġd": 280,
      "le": 281,
      "Ġo": 282,
      "ation": 283,
      "es": 284,
      "at": 285,
      "us": 286,
      "as": 287,
      "ro": 288,
      "an": 289,
      "it": 290,
      "Ġre": 291,
      "Ġin": 292,
      "ac": 293,
      "Ġof": 294,
      "Ġpre": 295,
      "si": 296,
      "et": 297,
      "dic": 298,
      "Ġle": 299,
      "Ġpredic": 300,
      "ning": 301,
      "Ġan": 302,
      "ed": 303,
      "Ġlear": 304,
      "Ġb": 305,
      "Ġlearning": 306,
      "om": 307,
      "Ġn": 308,
      "ec": 309,
      "ent": 310,
      "Ġfor": 311,
      "Ġus": 312,
      "ting": 313,
      "Ġg": 314,
      "el": 315,
      "Ġw": 316,
      "is": 317,
      "Ġcl": 318,
      "Ġusing": 319,
      "he": 320,
      "Ġe": 321,
      "ine": 322,
      "ication": 323,
      "Ġi": 324,
      "Ġand": 325,
      "ach": 326,
      "ag": 327,
      "Ġto": 328,
      "ut": 329,
      "Ġpredicting": 330,
      "Ġst": 331,
      "Ġl": 332,
      "ur": 333,
      "fication": 334,
      "assi": 335,
      "ment": 336,
      "ra": 337,
      "Ġclassi": 338,
      "tic": 339,
      "Ġthe": 340,
      "st": 341,
      "Ġh": 342,
      "Ġrec": 343,
      "ter": 344,
      "Ġmach": 345,
      "ith": 346,
      "Ġv": 347,
      "od": 348,
      "Ġmachine": 349,
      "og": 350,
      "ol": 351,
      "ul": 352,
      "Ġclassification": 353,
      "ce": 354,
      "Ġon": 355,
      "ri": 356,
      "ure": 357,
      "il": 358,
      "Ġprediction": 359,
      "am": 360,
      "oc": 361,
      "Ġim": 362,
      "un": 363,
      "enti": 364,
      "ve": 365,
      "Ġdat": 366,
      "ni": 367,
      "rom": 368,
      "pp": 369,
      "Ġse": 370,
      "ig": 371,
      "Ġdet": 372,
      "ity": 373,
      "Ġwith": 374,
      "Ġdata": 375,
      "tim": 376,
      "Ġpro": 377,
      "Ġfrom": 378,
      "Ġne": 379,
      "qu": 380,
      "Ġdetec": 381,
      "Ġaut": 382,
      "uc": 383,
      "wor": 384,
      "Ġcon": 385,
      "ot": 386,
      "Ġex": 387,
      "Ġnet": 388,
      "vi": 389,
      "Ġde": 390,
      "Ġgen": 391,
      "work": 392,
      "ers": 393,
      "ding": 394,
      "Ġapp": 395,
      "iz": 396,
      "ect": 397,
      "age": 398,
      "Ġcom": 399,
      "um": 400,
      "for": 401,
      "Ġr": 402,
      "ogni": 403,
      "Ġnetwork": 404,
      "Ġmod": 405,
      "ased": 406,
      "ying": 407,
      "Ġrecogni": 408,
      "sion": 409,
      "em": 410,
      "Ġmodel": 411,
      "aly": 412,
      "Ġdetection": 413,
      "denti": 414,
      "Ġsp": 415,
      "sis": 416,
      "ch": 417,
      "ab": 418,
      "Ġrecognition": 419,
      "Ġch": 420,
      "Ġidenti": 421,
      "ric": 422,
      "id": 423,
      "Ġanaly": 424,
      "up": 425,
      "Ġmo": 426,
      "ural": 427,
      "Ġdi": 428,
      "ate": 429,
      "ow": 430,
      "Ġautom": 431,
      "tive": 432,
      "ating": 433,
      "ren": 434,
      "Ġal": 435,
      "Ġun": 436,
      "Ġbased": 437,
      "ay": 438,
      "Ġac": 439,
      "res": 440,
      "Ġanalysis": 441,
      "end": 442,
      "Ġcomp": 443,
      "ep": 444,
      "ical": 445,
      "ess": 446,
      "op": 447,
      "erv": 448,
      "Ġfe": 449,
      "ial": 450,
      "Ġdis": 451,
      "Ġro": 452,
      "Ġsy": 453,
      "Ġfo": 454,
      "ous": 455,
      "Ġtra": 456,
      "ature": 457,
      "Ġexp": 458,
      "all": 459,
      "Ġappl": 460,
      "fying": 461,
      "rac": 462,
      "Ġk": 463,
      "ech": 464,
      "vie": 465,
      "gor": 466,
      "ts": 467,
      "Ġop": 468,
      "ark": 469,
      "ex": 470,
      "ia": 471,
      "ver": 472,
      "Ġen": 473,
      "Ġmus": 474,
      "ance": 475,
      "ws": 476,
      "Ġy": 477,
      "ad": 478,
      "ff": 479,
      "Ġimag": 480,
      "Ġnetworks": 481,
      "os": 482,
      "ruc": 483,
      "th": 484,
      "Ġar": 485,
      "Ġneural": 486,
      "ms": 487,
      "omm": 488,
      "ap": 489,
      "ell": 490,
      "Ġcont": 491,
      "Ġalgor": 492,
      "Ġalgorith": 493,
      "ign": 494,
      "Ġfeature": 495,
      "Ġpl": 496,
      "stem": 497,
      "Ġrecomm": 498,
      "ization": 499,
      "Ġsystem": 500,
      "ject": 501,
      "Ġqu": 502,
      "Ġth": 503,
      "ated": 504,
      "form": 505,
      "im": 506,
      "ture": 507,
      "Ġdeep": 508,
      "ir": 509,
      "ug": 510,
      "anc": 511,
      "and": 512,
      "tering": 513,
      "ud": 514,
      "Ġmul": 515,
      "Ġrecommend": 516,
      "atic": 517,
      "ised": 518,
      "ies": 519,
      "ations": 520,
      "uperv": 521,
      "upervised": 522,
      "ph": 523,
      "ss": 524,
      "Ġob": 525,
      "Ġgam": 526,
      "ock": 527,
      "eb": 528,
      "se": 529,
      "ang": 530,
      "time": 531,
      "Ġimage": 532,
      "Ġidentification": 533,
      "eren": 534,
      "ans": 535,
      "tor": 536,
      "rec": 537,
      "Ġad": 538,
      "lec": 539,
      "Ġgener": 540,
      "Ġmark": 541,
      "Ġclus": 542,
      "Ġappro": 543,
      "Ġmusic": 544,
      "Ġmulti": 545,
      "Ġat": 546,
      "Ġtex": 547,
      "Ġrein": 548,
      "Ġint": 549,
      "Ġimp": 550,
      "igh": 551,
      "Ġautomatic": 552,
      "Ġimages": 553,
      "ip": 554,
      "Ġsc": 555,
      "Ġres": 556,
      "Ġbe": 557,
      "Ġem": 558,
      "Ġapproach": 559,
      "Ġreinfor": 560,
      "Ġsenti": 561,
      "Ġpo": 562,
      "Ġpric": 563,
      "ens": 564,
      "les": 565,
      "Ġstock": 566,
      "Ġsentiment": 567,
      "tions": 568,
      "ard": 569,
      "Ġtech": 570,
      "cement": 571,
      "Ġrob": 572,
      "Ġclustering": 573,
      "Ġreinforcement": 574,
      "ak": 575,
      "line": 576,
      "ort": 577,
      "Ġfac": 578,
      "der": 579,
      "duc": 580,
      "Ġsh": 581,
      "ression": 582,
      "yp": 583,
      "Ġes": 584,
      "tiv": 585,
      "Ġfl": 586,
      "Ġhum": 587,
      "Ġobject": 588,
      "ution": 589,
      "Ġrevie": 590,
      "Ġoptim": 591,
      "ugh": 592,
      "Ġestim": 593,
      "Ġhuman": 594,
      "fi": 595,
      "our": 596,
      "ub": 597,
      "Ġtw": 598,
      "Ġmet": 599,
      "Ġautomated": 600,
      "ual": 601,
      "ving": 602,
      "Ġtr": 603,
      "rough": 604,
      "niqu": 605,
      "Ġext": 606,
      "Ġmodels": 607,
      "Ġtechniqu": 608,
      "gment": 609,
      "Ġper": 610,
      "Ġpar": 611,
      "arch": 612,
      "Ġby": 613,
      "ular": 614,
      "Ġsegment": 615,
      "ds": 616,
      "ge": 617,
      "vel": 618,
      "Ġcol": 619,
      "Ġpredict": 620,
      "elp": 621,
      "Ġstruc": 622,
      "Ġalgorithms": 623,
      "Ġmarket": 624,
      "ative": 625,
      "Ġmat": 626,
      "Ġreg": 627,
      "ack": 628,
      "ments": 629,
      "Ġnews": 630,
      "Ġapplication": 631,
      "Ġthrough": 632,
      "Ġtechniques": 633,
      "supervised": 634,
      "Ġtime": 635,
      "art": 636,
      "ast": 637,
      "Ġprob": 638,
      "Ġidentifying": 639,
      "ail": 640,
      "io": 641,
      "ion": 642,
      "onom": 643,
      "Ġph": 644,
      "ant": 645,
      "Ġforec": 646,
      "Ġfeatures": 647,
      "tri": 648,
      "Ġ3": 649,
      "Ġhe": 650,
      "Ġfin": 651,
      "abil": 652,
      "Ġchar": 653,
      "ide": 654,
      "Ġyelp": 655,
      "Ġrecommendation": 656,
      "Ġtrans": 657,
      "ati": 658,
      "com": 659,
      "cess": 660,
      "ining": 661,
      "ence": 662,
      "asting": 663,
      "rol": 664,
      "Ġinter": 665,
      "Ġuser": 666,
      "olog": 667,
      "Ġgene": 668,
      "'s": 669,
      "cri": 670,
      "eas": 671,
      "me": 672,
      "Ġpat": 673,
      "ari": 674,
      "acter": 675,
      "istic": 676,
      "Ġev": 677,
      "Ġtext": 678,
      "Ġforecasting": 679,
      "king": 680,
      "man": 681,
      "ue": 682,
      "Ġj": 683,
      "int": 684,
      "Ġsoc": 685,
      "Ġweb": 686,
      "Ġloc": 687,
      "Ġlang": 688,
      "Ġclassifying": 689,
      "Ġestimation": 690,
      "Ġcharacter": 691,
      "Ġlangu": 692,
      "co": 693,
      "Ġsign": 694,
      "ors": 695,
      "rain": 696,
      "olution": 697,
      "Ġmodeling": 698,
      "Ġspe": 699,
      "Ġexpl": 700,
      "oring": 701,
      "ass": 702,
      "Ġbi": 703,
      "Ġonline": 704,
      "Ġunsupervised": 705,
      "Ġcontrol": 706,
      "Ġreviews": 707,
      "Ġsegmentation": 708,
      "Ġlanguage": 709,
      "ong": 710,
      "ality": 711,
      "Ġdri": 712,
      "itter": 713,
      "Ġno": 714,
      "Ġgra": 715,
      "Ġwh": 716,
      "struc": 717,
      "Ġvia": 718,
      "Ġdiff": 719,
      "Ġimpro": 720,
      "tivity": 721,
      "Ġtwitter": 722,
      "Ġmeth": 723,
      "based": 724,
      "fl": 725,
      "ics": 726,
      "Ġdy": 727,
      "Ġout": 728,
      "Ġinform": 729,
      "agn": 730,
      "Ġvide": 731,
      "und": 732,
      "Ġdetecting": 733,
      "Ġrating": 734,
      "Ġmovie": 735,
      "Ġgame": 736,
      "Ġextrac": 737,
      "crip": 738,
      "Ġmethod": 739,
      "feren": 740,
      "Ġsim": 741,
      "enc": 742,
      "Ġco": 743,
      "ary": 744,
      "izing": 745,
      "Ġacc": 746,
      "Ġtrading": 747,
      "Ġalgorithm": 748,
      "Ġplay": 749,
      "Ġrobot": 750,
      "ha": 751,
      "ision": 752,
      "ok": 753,
      "uil": 754,
      "ice": 755,
      "Ġsens": 756,
      "Ġcell": 757,
      "Ġdes": 758,
      "Ġwor": 759,
      "tical": 760,
      "Ġdifferen": 761,
      "ft": 762,
      "gy": 763,
      "nam": 764,
      "ore": 765,
      "Ġpers": 766,
      "Ġdec": 767,
      "ite": 768,
      "ace": 769,
      "Ġbuil": 770,
      "Ġli": 771,
      "Ġhand": 772,
      "Ġgames": 773,
      "ain": 774,
      "ron": 775,
      "ven": 776,
      "Ġor": 777,
      "Ġrep": 778,
      "ets": 779,
      "edia": 780,
      "Ġbo": 781,
      "ents": 782,
      "amp": 783,
      "Ġcomm": 784,
      "able": 785,
      "ancer": 786,
      "Ġbeha": 787,
      "Ġperform": 788,
      "Ġstructure": 789,
      "trib": 790,
      "Ġsocial": 791,
      "Ġinformation": 792,
      "ax": 793,
      "ey": 794,
      "ling": 795,
      "ension": 796,
      "Ġrel": 797,
      "Ġautonom": 798,
      "Ġunder": 799,
      "lect": 800,
      "Ġdynam": 801,
      "Ġbehavi": 802,
      "are": 803,
      "Ġcor": 804,
      "Ġreal": 805,
      "Ġind": 806,
      "Ġsearch": 807,
      "Ġprice": 808,
      "Ġvideo": 809,
      "Ġperformance": 810,
      "Ġautonomous": 811,
      "Ġbehavior": 812,
      "vers": 813,
      "onal": 814,
      "Ġab": 815,
      "Ġsing": 816,
      "erm": 817,
      "ery": 818,
      "Ġcancer": 819,
      "Ġfil": 820,
      "omet": 821,
      "ized": 822,
      "Ġactivity": 823,
      "Ġapplying": 824,
      "Ġmusical": 825,
      "ffic": 826,
      "Ġoptimization": 827,
      "Ġoutcom": 828,
      "Ġbuilding": 829,
      "ball": 830,
      "lab": 831,
      "par": 832,
      "te": 833,
      "ty": 834,
      "ines": 835,
      "Ġam": 836,
      "Ġas": 837,
      "Ġaud": 838,
      "Ġsupervised": 839,
      "Ġsub": 840,
      "eries": 841,
      "Ġtrac": 842,
      "als": 843,
      "Ġdo": 844,
      "Ġbas": 845,
      "isk": 846,
      "Ġtop": 847,
      "Ġvect": 848,
      "ogra": 849,
      "Ġdiagn": 850,
      "Ġlocal": 851,
      "Ġspeech": 852,
      "por": 853,
      "ten": 854,
      "val": 855,
      "Ġag": 856,
      "Ġsm": 857,
      "Ġpol": 858,
      "Ġpop": 859,
      "Ġtag": 860,
      "est": 861,
      "Ġnon": 862,
      "Ġwi": 863,
      "Ġlo": 864,
      "Ġvari": 865,
      "ult": 866,
      "ill": 867,
      "unc": 868,
      "Ġexpression": 869,
      "Ġadap": 870,
      "lection": 871,
      "Ġprobabil": 872,
      "ological": 873,
      "Ġsingle": 874,
      "av": 875,
      "az": 876,
      "ba": 877,
      "ile": 878,
      "out": 879,
      "pon": 880,
      "ry": 881,
      "Ġsv": 882,
      "Ġsal": 883,
      "Ġsong": 884,
      "Ġpreferen": 885,
      "Ġgro": 886,
      "isual": 887,
      "Ġear": 888,
      "Ġelect": 889,
      "Ġstud": 890,
      "Ġhow": 891,
      "tern": 892,
      "Ġproduc": 893,
      "Ġdiseas": 894,
      "ight": 895,
      "Ġregression": 896,
      "struction": 897,
      "Ġextraction": 898,
      "cription": 899,
      "Ġmethods": 900,
      "Ġpersonal": 901,
      "ces": 902,
      "ix": 903,
      "ient": 904,
      "ÂĢ": 905,
      "ties": 906,
      "Ġsur": 907,
      "Ġsol": 908,
      "ert": 909,
      "Ġmon": 910,
      "Ġret": 911,
      "Ġbrain": 912,
      "Ġga": 913,
      "ish": 914,
      "Ġstr": 915,
      "Ġsty": 916,
      "Ġhigh": 917,
      "Ġvisual": 918,
      "oding": 919,
      "Ġseman": 920,
      "Ġprocess": 921,
      "Ġcomput": 922,
      "Ġfoot": 923,
      "ally": 924,
      "Ġkey": 925,
      "Ġeng": 926,
      "Ġpost": 927,
      "Ġsimul": 928,
      "Ġaudio": 929,
      "ÂĢÂ": 930,
      "Ġsemantic": 931,
      "fy": 932,
      "fic": 933,
      "ian": 934,
      "ood": 935,
      "volution": 936,
      "Ġis": 937,
      "Ġra": 938,
      "Ġair": 939,
      "Ġtyp": 940,
      "alu": 941,
      "ational": 942,
      "ator": 943,
      "anding": 944,
      "Ġinv": 945,
      "Ġbet": 946,
      "Ġusers": 947,
      "Ġwe": 948,
      "hem": 949,
      "Ġselection": 950,
      "Ġconvolution": 951,
      "Ġdep": 952,
      "Ġgenre": 953,
      "Ġplan": 954,
      "Ġgeneration": 955,
      "Ġprices": 956,
      "ake": 957,
      "Ġtranscription": 958,
      "Ġexploring": 959,
      "Ġunderst": 960,
      "Ġsmart": 961,
      "Ġfootball": 962,
      "ere": 963,
      "ging": 964,
      "ke": 965,
      "ly": 966,
      "mension": 967,
      "na": 968,
      "nel": 969,
      "Ã¢": 970,
      "Ġ-": 971,
      "Ġ2": 972,
      "Ġass": 973,
      "ick": 974,
      "ergy": 975,
      "Ġfunc": 976,
      "Ġreduc": 977,
      "Ġnba": 978,
      "Ġclassifi": 979,
      "Ġrecon": 980,
      "Ġran": 981,
      "Ġrisk": 982,
      "Ġspar": 983,
      "Ġdimension": 984,
      "Ġappli": 985,
      "Ġenergy": 986,
      "Ġsystems": 987,
      "Ġrespon": 988,
      "Ġphot": 989,
      "Ġdriving": 990,
      "Ġsvm": 991,
      "Ġsales": 992,
      "Ġstrate": 993,
      "Ġconvolutional": 994,
      "Ġunderstanding": 995,
      "aying": 996,
      "eg": 997,
      "osis": 998,
      "rit": 999,
      "zing": 1000,
      "Ġit": 1001,
      "Ġai": 1002,
      "icro": 1003,
      "Ġseries": 1004,
      "eri": 1005,
      "Ġte": 1006,
      "Ġtren": 1007,
      "ates": 1008,
      "ust": 1009,
      "sition": 1010,
      "raft": 1011,
      "Ġrecur": 1012,
      "Ġdef": 1013,
      "Ġgenom": 1014,
      "rics": 1015,
      "Ġmove": 1016,
      "Ġartic": 1017,
      "Ġques": 1018,
      "Ġrecommendations": 1019,
      "ange": 1020,
      "tors": 1021,
      "Ġmatch": 1022,
      "Ġfinding": 1023,
      "ability": 1024,
      "Ġpattern": 1025,
      "Ġnovel": 1026,
      "Ġpopular": 1027,
      "Ġadaptive": 1028,
      "Ġprobabilistic": 1029,
      "Ġdisease": 1030,
      "Ġsparse": 1031,
      "cl": 1032,
      "eh": 1033,
      "hip": 1034,
      "nn": 1035,
      "otion": 1036,
      "tural": 1037,
      "ument": 1038,
      "Ġ(": 1039,
      "Ġec": 1040,
      "ind": 1041,
      "ree": 1042,
      "Ġpe": 1043,
      "ene": 1044,
      "Ġcre": 1045,
      "Ġcar": 1046,
      "Ġcard": 1047,
      "Ġfra": 1048,
      "Ġman": 1049,
      "Ġmeas": 1050,
      "Ġmicro": 1051,
      "Ġdoc": 1052,
      "usion": 1053,
      "Ġrele": 1054,
      "Ġbl": 1055,
      "Ġbre": 1056,
      "Ġlar": 1057,
      "Ġlow": 1058,
      "tics": 1059,
      "Ġrecor": 1060,
      "ults": 1061,
      "amet": 1062,
      "Ġmob": 1063,
      "Ġyour": 1064,
      "Ġcontent": 1065,
      "Ġplaying": 1066,
      "Ġstructural": 1067,
      "Ġproble": 1068,
      "ology": 1069,
      "Ġpath": 1070,
      "Ġdifferent": 1071,
      "tribut": 1072,
      "ograph": 1073,
      "Ġdiagnosis": 1074,
      "Ġstyle": 1075,
      "air": 1076,
      "hy": 1077,
      "mi": 1078,
      "now": 1079,
      "ov": 1080,
      "ras": 1081,
      "sp": 1082,
      "upp": 1083,
      "ward": 1084,
      "Ġti": 1085,
      "iness": 1086,
      "Ġare": 1087,
      "Ġsch": 1088,
      "Ġme": 1089,
      "Ġdark": 1090,
      "ital": 1091,
      "Ġlearn": 1092,
      "Ġbus": 1093,
      "pping": 1094,
      "Ġsepar": 1095,
      "Ġprog": 1096,
      "Ġnew": 1097,
      "Ġauth": 1098,
      "Ġtraffic": 1099,
      "Ġemail": 1100,
      "Ġcollab": 1101,
      "Ġimproving": 1102,
      "Ġratings": 1103,
      "Ġsensor": 1104,
      "Ġdesign": 1105,
      "Ġword": 1106,
      "Ġoutcomes": 1107,
      "tein": 1108,
      "Ġvector": 1109,
      "Ġpreferences": 1110,
      "Ġfunction": 1111,
      "Ġclassifier": 1112,
      "Ġreconstruction": 1113,
      "Ġlarge": 1114,
      "Ġcollabor": 1115,
      "di": 1116,
      "dit": 1117,
      "ib": 1118,
      "otic": 1119,
      "ook": 1120,
      "sc": 1121,
      "writ": 1122,
      "tial": 1123,
      "Ġso": 1124,
      "Ġsuc": 1125,
      "Ġsupp": 1126,
      "Ġpri": 1127,
      "ering": 1128,
      "Ġcal": 1129,
      "arial": 1130,
      "Ġtem": 1131,
      "Ġdr": 1132,
      "atural": 1133,
      "ase": 1134,
      "anti": 1135,
      "Ġrest": 1136,
      "Ġinc": 1137,
      "act": 1138,
      "sive": 1139,
      "Ġbin": 1140,
      "Ġnatural": 1141,
      "eler": 1142,
      "ram": 1143,
      "Ġvision": 1144,
      "Ġveh": 1145,
      "Ġpredictions": 1146,
      "Ġdatas": 1147,
      "Ġsequ": 1148,
      "Ġdeterm": 1149,
      "Ġprofi": 1150,
      "Ġprotein": 1151,
      "Ġauto": 1152,
      "Ġdem": 1153,
      "dings": 1154,
      "Ġrate": 1155,
      "Ġfeed": 1156,
      "Ġsyn": 1157,
      "Ġarti": 1158,
      "Ġquanti": 1159,
      "ebook": 1160,
      "Ġadvers": 1161,
      "Ġatt": 1162,
      "Ġpoint": 1163,
      "Ġfacebook": 1164,
      "Ġreview": 1165,
      "Ġgenetic": 1166,
      "Ġevalu": 1167,
      "Ġamaz": 1168,
      "Ġtracking": 1169,
      "ÂĢÂĭ": 1170,
      "Ġtype": 1171,
      "Ġapplied": 1172,
      "Ġtrends": 1173,
      "Ġmobile": 1174,
      "Ġcollaborative": 1175,
      "Ġsuccess": 1176,
      "Ġvehic": 1177,
      "Ġadversarial": 1178,
      "Ġamazon": 1179,
      "de": 1180,
      "fol": 1181,
      "ie": 1182,
      "kip": 1183,
      "pl": 1184,
      "ran": 1185,
      "ted": 1186,
      "ym": 1187,
      "Ġed": 1188,
      "ĠÃ¢": 1189,
      "one": 1190,
      "Ġpati": 1191,
      "ory": 1192,
      "ending": 1193,
      "err": 1194,
      "Ġma": 1195,
      "Ġmri": 1196,
      "Ġdig": 1197,
      "ane": 1198,
      "Ġinst": 1199,
      "Ġleg": 1200,
      "Ġbay": 1201,
      "ism": 1202,
      "Ġline": 1203,
      "Ġhot": 1204,
      "Ġvo": 1205,
      "ures": 1206,
      "ump": 1207,
      "Ġchat": 1208,
      "rent": 1209,
      "Ġoptical": 1210,
      "ose": 1211,
      "Ġquality": 1212,
      "ancial": 1213,
      "Ġface": 1214,
      "Ġflight": 1215,
      "Ġparamet": 1216,
      "Ġmatter": 1217,
      "Ġfinancial": 1218,
      "Ġwhat": 1219,
      "Ġimprove": 1220,
      "Ġacceler": 1221,
      "Ġhandwrit": 1222,
      "Ġcommun": 1223,
      "Ġdynamics": 1224,
      "Ġfiltering": 1225,
      "Ġtopic": 1226,
      "Ġwikip": 1227,
      "Ġelectric": 1228,
      "Ġstudy": 1229,
      "Ġdepth": 1230,
      "Ġresponse": 1231,
      "Ġpopularity": 1232,
      "Ġframe": 1233,
      "Ġbreast": 1234,
      "Ġbusiness": 1235,
      "Ġsupport": 1236,
      "Ġwikipedia": 1237,
      "aur": 1238,
      "back": 1239,
      "dri": 1240,
      "face": 1241,
      "gre": 1242,
      "ll": 1243,
      "oor": 1244,
      "oint": 1245,
      "put": 1246,
      "way": 1247,
      "Ġu": 1248,
      "ĠĊ": 1249,
      "Ġsat": 1250,
      "Ġport": 1251,
      "Ġcri": 1252,
      "Ġfut": 1253,
      "Ġfast": 1254,
      "Ġtre": 1255,
      "ale": 1256,
      "Ġdel": 1257,
      "lement": 1258,
      "Ġoc": 1259,
      "esture": 1260,
      "ath": 1261,
      "rop": 1262,
      "Ġrem": 1263,
      "action": 1264,
      "Ġoff": 1265,
      "Ġform": 1266,
      "Ġgesture": 1267,
      "ist": 1268,
      "Ġeff": 1269,
      "Ġstere": 1270,
      "ray": 1271,
      "sts": 1272,
      "Ġhi": 1273,
      "Ġvol": 1274,
      "Ġprop": 1275,
      "Ġcons": 1276,
      "viron": 1277,
      "ower": 1278,
      "ople": 1279,
      "Ġdisco": 1280,
      "Ġdistribut": 1281,
      "Ġfore": 1282,
      "Ġtraining": 1283,
      "Ġenh": 1284,
      "ellite": 1285,
      "Ġinto": 1286,
      "Ġrobotic": 1287,
      "Ġflow": 1288,
      "Ġoptimal": 1289,
      "Ġcolor": 1290,
      "Ġsignals": 1291,
      "Ġnois": 1292,
      "ency": 1293,
      "Ġdynamic": 1294,
      "Ġplanning": 1295,
      "Ġranking": 1296,
      "Ġrecurrent": 1297,
      "Ġarticles": 1298,
      "Ġpatterns": 1299,
      "Ġpeople": 1300,
      "Ġrelev": 1301,
      "Ġproblem": 1302,
      "Ġseparation": 1303,
      "Ġsatellite": 1304,
      "Ġdistributed": 1305,
      "ble": 1306,
      "craft": 1307,
      "ities": 1308,
      "ks": 1309,
      "lic": 1310,
      "net": 1311,
      "ness": 1312,
      "oir": 1313,
      "pre": 1314,
      "sur": 1315,
      "to": 1316,
      "yrics": 1317,
      "ze": 1318,
      "Ġx": 1319,
      "tig": 1320,
      "Ġpower": 1321,
      "orph": 1322,
      "Ġcan": 1323,
      "Ġcity": 1324,
      "Ġcare": 1325,
      "Ġtum": 1326,
      "Ġmedia": 1327,
      "Ġden": 1328,
      "asy": 1329,
      "ross": 1330,
      "itco": 1331,
      "sian": 1332,
      "Ġbitco": 1333,
      "Ġuse": 1334,
      "Ġgo": 1335,
      "Ġwin": 1336,
      "Ġstate": 1337,
      "Ġstore": 1338,
      "Ġlog": 1339,
      "Ġlyrics": 1340,
      "Ġvs": 1341,
      "Ġval": 1342,
      "ode": 1343,
      "Ġdev": 1344,
      "Ġidentify": 1345,
      "Ġdirec": 1346,
      "resent": 1347,
      "Ġcompar": 1348,
      "Ġcomple": 1349,
      "Ġcompos": 1350,
      "Ġexperi": 1351,
      "Ġenviron": 1352,
      "ellig": 1353,
      "Ġmultic": 1354,
      "Ġrecommender": 1355,
      "eball": 1356,
      "Ġgeneral": 1357,
      "Ġgenerating": 1358,
      "Ġintellig": 1359,
      "Ġscene": 1360,
      "Ġemb": 1361,
      "Ġshort": 1362,
      "Ġapplications": 1363,
      "Ġheart": 1364,
      "atis": 1365,
      "Ġdriver": 1366,
      "Ġgraph": 1367,
      "Ġrepresent": 1368,
      "tribution": 1369,
      "Ġrelations": 1370,
      "Ġbaseball": 1371,
      "Ġlocalization": 1372,
      "poral": 1373,
      "Ġload": 1374,
      "Ġgroup": 1375,
      "Ġpersonalized": 1376,
      "Ġgaus": 1377,
      "Ġcomputer": 1378,
      "Ġkeywor": 1379,
      "Ġreduction": 1380,
      "Ġstrategy": 1381,
      "hyth": 1382,
      "Ġtiss": 1383,
      "Ġprogram": 1384,
      "Ġdrug": 1385,
      "Ġbinding": 1386,
      "Ġvehicle": 1387,
      "Ġpatients": 1388,
      "Ġbayes": 1389,
      "Ġacceleromet": 1390,
      "Ġframework": 1391,
      "Ġstereo": 1392,
      "Ġdiscover": 1393,
      "Ġbitcoin": 1394,
      "00": 1395,
      "ave": 1396,
      "ious": 1397,
      "ific": 1398,
      "mri": 1399,
      "ob": 1400,
      "ores": 1401,
      "oud": 1402,
      "ple": 1403,
      "rument": 1404,
      "sing": 1405,
      "ses": 1406,
      "sem": 1407,
      "tation": 1408,
      "tual": 1409,
      "Ġq": 1410,
      "Ġenti": 1411,
      "Ġerr": 1412,
      "Ġsour": 1413,
      "Ġsamp": 1414,
      "Ġpub": 1415,
      "enge": 1416,
      "erarch": 1417,
      "Ġcr": 1418,
      "Ġcate": 1419,
      "Ġcap": 1420,
      "Ġchem": 1421,
      "Ġfre": 1422,
      "Ġfant": 1423,
      "Ġmin": 1424,
      "Ġmining": 1425,
      "Ġmax": 1426,
      "lear": 1427,
      "Ġover": 1428,
      "annel": 1429,
      "its": 1430,
      "itoring": 1431,
      "Ġred": 1432,
      "omain": 1433,
      "Ġnam": 1434,
      "Ġnfl": 1435,
      "ective": 1436,
      "Ġgp": 1437,
      "Ġgu": 1438,
      "Ġwine": 1439,
      "ison": 1440,
      "istor": 1441,
      "Ġstack": 1442,
      "Ġstatis": 1443,
      "uring": 1444,
      "Ġhyp": 1445,
      "cep": 1446,
      "Ġsemi": 1447,
      "Ġdevel": 1448,
      "agement": 1449,
      "Ġspec": 1450,
      "Ġspect": 1451,
      "Ġchall": 1452,
      "Ġmotion": 1453,
      "Ġdiab": 1454,
      "ervoir": 1455,
      "Ġfood": 1456,
      "Ġker": 1457,
      "Ġensem": 1458,
      "Ġimaging": 1459,
      "osing": 1460,
      "Ġmarkov": 1461,
      "Ġattribution": 1462,
      "Ġimplement": 1463,
      "Ġreservoir": 1464,
      "Ġemotion": 1465,
      "Ġshap": 1466,
      "Ġtwe": 1467,
      "means": 1468,
      "Ġcharacterizing": 1469,
      "Ġcoun": 1470,
      "Ġalgorithmic": 1471,
      "Ġdecision": 1472,
      "Ġindoor": 1473,
      "Ġoutcome": 1474,
      "Ġagent": 1475,
      "Ġpoli": 1476,
      "Ġearth": 1477,
      "Ġproduct": 1478,
      "Ġmonitoring": 1479,
      "Ġengine": 1480,
      "Ġquestion": 1481,
      "Ġmeasure": 1482,
      "Ġrestaur": 1483,
      "Ġdetermining": 1484,
      "driven": 1485,
      "Ġportfol": 1486,
      "Ġhierarch": 1487,
      "Ġcomparison": 1488,
      "Ġtissue": 1489,
      "Ġaccelerometer": 1490,
      "Ġcategor": 1491,
      "Ġfantasy": 1492,
      "Ġdevelop": 1493,
      "Ġchallenge": 1494,
      "af": 1495,
      "ault": 1496,
      "fac": 1497,
      "iv": 1498,
      "lation": 1499,
      "lid": 1500,
      "low": 1501,
      "lass": 1502,
      "lish": 1503,
      "of": 1504,
      "osition": 1505,
      "ral": 1506,
      "rhyth": 1507,
      "sw": 1508,
      "serv": 1509,
      "uments": 1510,
      "we": 1511,
      "Ġ1": 1512,
      "Ġtim": 1513,
      "Ġup": 1514,
      "inion": 1515,
      "ones": 1516,
      "onent": 1517,
      "rele": 1518,
      "Ġaid": 1519,
      "ices": 1520,
      "Ġpain": 1521,
      "ories": 1522,
      "Ġcour": 1523,
      "Ġcamp": 1524,
      "Ġcoding": 1525,
      "Ġfi": 1526,
      "Ġfr": 1527,
      "Ġfol": 1528,
      "Ġfmri": 1529,
      "alth": 1530,
      "alax": 1531,
      "Ġmak": 1532,
      "led": 1533,
      "Ġoil": 1534,
      "roke": 1535,
      "ants": 1536,
      "ites": 1537,
      "acy": 1538,
      "sig": 1539,
      "Ġpredictive": 1540,
      "Ġansw": 1541,
      "Ġbot": 1542,
      "Ġnot": 1543,
      "Ġnum": 1544,
      "Ġge": 1545,
      "Ġcloud": 1546,
      "Ġep": 1547,
      "Ġeffic": 1548,
      "Ġstar": 1549,
      "Ġstates": 1550,
      "Ġlat": 1551,
      "urb": 1552,
      "Ġhous": 1553,
      "Ġhistor": 1554,
      "old": 1555,
      "ilar": 1556,
      "ility": 1557,
      "Ġseiz": 1558,
      "Ġprof": 1559,
      "Ġproject": 1560,
      "quake": 1561,
      "uch": 1562,
      "Ġconf": 1563,
      "otor": 1564,
      "Ġrecognizing": 1565,
      "change": 1566,
      "Ġanalyzing": 1567,
      "Ġmolec": 1568,
      "Ġunit": 1569,
      "Ġacous": 1570,
      "Ġroad": 1571,
      "Ġtraject": 1572,
      "Ġknow": 1573,
      "Ġyo": 1574,
      "Ġimagery": 1575,
      "Ġcontex": 1576,
      "Ġobserv": 1577,
      "Ġmultiple": 1578,
      "Ġautomatically": 1579,
      "Ġresults": 1580,
      "Ġapproaches": 1581,
      "Ġpricing": 1582,
      "ensity": 1583,
      "Ġfacial": 1584,
      "Ġfactor": 1585,
      "Ġestimating": 1586,
      "onomic": 1587,
      "Ġhealth": 1588,
      "Ġevents": 1589,
      "Ġextracting": 1590,
      "ference": 1591,
      "Ġsimilar": 1592,
      "Ġaccur": 1593,
      "Ġcells": 1594,
      "Ġfilter": 1595,
      "Ġdoes": 1596,
      "Ġvectors": 1597,
      "Ġtagging": 1598,
      "Ġstudent": 1599,
      "Ġsolar": 1600,
      "Ġretin": 1601,
      "Ġprocessing": 1602,
      "Ġenglish": 1603,
      "Ġrap": 1604,
      "Ġaircraft": 1605,
      "Ġinves": 1606,
      "Ġbetter": 1607,
      "Ġassess": 1608,
      "Ġmovement": 1609,
      "Ġmatching": 1610,
      "Ġdocuments": 1611,
      "Ġrecordings": 1612,
      "Ġtemporal": 1613,
      "Ġsequence": 1614,
      "Ġdemand": 1615,
      "Ġattack": 1616,
      "Ġevaluation": 1617,
      "Ġdigital": 1618,
      "Ġinstrument": 1619,
      "Ġlinear": 1620,
      "Ġhotel": 1621,
      "Ġhandwritten": 1622,
      "Ġfuture": 1623,
      "Ġdelay": 1624,
      "Ġnoise": 1625,
      "Ġenvironments": 1626,
      "Ġrelationship": 1627,
      "Ġgaussian": 1628,
      "Ġentity": 1629,
      "Ġerror": 1630,
      "Ġpublic": 1631,
      "Ġchemical": 1632,
      "Ġmaxim": 1633,
      "learning": 1634,
      "Ġnamed": 1635,
      "Ġkernel": 1636,
      "Ġtweets": 1637,
      "Ġpolitical": 1638,
      "Ġportfolio": 1639,
      "Ġacoustic": 1640,
      "ber": 1641,
      "ca": 1642,
      "cert": 1643,
      "dp": 1644,
      "etic": 1645,
      "hood": 1646,
      "iation": 1647,
      "ler": 1648,
      "min": 1649,
      "mia": 1650,
      "ois": 1651,
      "ool": 1652,
      "pr": 1653,
      "rup": 1654,
      "set": 1655,
      "yc": 1656,
      "Ġic": 1657,
      "Ġri": 1658,
      "ond": 1659,
      "onic": 1660,
      "onym": 1661,
      "red": 1662,
      "icious": 1663,
      "Ġsn": 1664,
      "Ġpose": 1665,
      "orts": 1666,
      "erial": 1667,
      "erature": 1668,
      "Ġcam": 1669,
      "Ġterm": 1670,
      "Ġml": 1671,
      "Ġmal": 1672,
      "Ġmem": 1673,
      "Ġmech": 1674,
      "Ġmagn": 1675,
      "Ġmorph": 1676,
      "Ġmotor": 1677,
      "Ġdow": 1678,
      "Ġdail": 1679,
      "Ġoth": 1680,
      "ession": 1681,
      "use": 1682,
      "round": 1683,
      "etes": 1684,
      "dical": 1685,
      "Ġleag": 1686,
      "Ġpredictor": 1687,
      "Ġanom": 1688,
      "Ġanonym": 1689,
      "edul": 1690,
      "entence": 1691,
      "tings": 1692,
      "Ġgl": 1693,
      "Ġgras": 1694,
      "Ġgalax": 1695,
      "Ġwill": 1696,
      "Ġclick": 1697,
      "Ġequ": 1698,
      "aging": 1699,
      "ages": 1700,
      "Ġtoward": 1701,
      "Ġstre": 1702,
      "Ġlin": 1703,
      "Ġlane": 1704,
      "Ġhy": 1705,
      "Ġhard": 1706,
      "Ġmachines": 1707,
      "ody": 1708,
      "rid": 1709,
      "Ġneut": 1710,
      "Ġdetect": 1711,
      "Ġcong": 1712,
      "ote": 1713,
      "Ġexchange": 1714,
      "Ġnetfl": 1715,
      "Ġcomments": 1716,
      "Ġspati": 1717,
      "Ġchines": 1718,
      "Ġchannel": 1719,
      "ress": 1720,
      "Ġcompan": 1721,
      "opy": 1722,
      "Ġdisc": 1723,
      "Ġdist": 1724,
      "Ġross": 1725,
      "Ġopinion": 1726,
      "Ġarm": 1727,
      "Ġarrhyth": 1728,
      "ignment": 1729,
      "Ġquery": 1730,
      "tured": 1731,
      "tures": 1732,
      "anced": 1733,
      "phone": 1734,
      "Ġgenerative": 1735,
      "Ġimpact": 1736,
      "tives": 1737,
      "Ġobjects": 1738,
      "Ġhead": 1739,
      "Ġinterpre": 1740,
      "istics": 1741,
      "Ġevolution": 1742,
      "Ġcharacterization": 1743,
      "Ġsignal": 1744,
      "Ġspeak": 1745,
      "Ġbias": 1746,
      "Ġbike": 1747,
      "flu": 1748,
      "Ġdescrip": 1749,
      "Ġbox": 1750,
      "label": 1751,
      "Ġtags": 1752,
      "Ġretail": 1753,
      "Ġposts": 1754,
      "Ġsimulation": 1755,
      "Ġassoc": 1756,
      "Ġstrateg": 1757,
      "Ġteam": 1758,
      "Ġgenome": 1759,
      "Ġmovements": 1760,
      "Ġquestions": 1761,
      "Ġcreating": 1762,
      "Ġschedul": 1763,
      "dition": 1764,
      "Ġdataset": 1765,
      "Ġprofile": 1766,
      "Ġfeedback": 1767,
      "Ġmapping": 1768,
      "Ġvoice": 1769,
      "Ġparameters": 1770,
      "Ġelectricity": 1771,
      "Ġuav": 1772,
      "Ġcrime": 1773,
      "Ġoffice": 1774,
      "Ġdevices": 1775,
      "Ġcomposer": 1776,
      "Ġmulticlass": 1777,
      "Ġintelligent": 1778,
      "Ġembed": 1779,
      "Ġsource": 1780,
      "Ġfrequ": 1781,
      "Ġreddit": 1782,
      "Ġdiabetes": 1783,
      "Ġshape": 1784,
      "Ġearthquake": 1785,
      "Ġhierarchical": 1786,
      "lowing": 1787,
      "Ġtimes": 1788,
      "Ġfollowing": 1789,
      "Ġlatent": 1790,
      "Ġyou": 1791,
      "Ġinvestig": 1792,
      "Ġattacks": 1793,
      "Ġrelationships": 1794,
      "Ġmechan": 1795,
      "Ġdaily": 1796,
      "Ġanonymous": 1797,
      "Ġgrasp": 1798,
      "Ġnetflix": 1799,
      "Ġchinese": 1800,
      "Ġrossman": 1801,
      "Ġscheduling": 1802,
      "ai": 1803,
      "aign": 1804,
      "bor": 1805,
      "cer": 1806,
      "cial": 1807,
      "den": 1808,
      "fer": 1809,
      "gs": 1810,
      "gth": 1811,
      "ket": 1812,
      "ner": 1813,
      "pi": 1814,
      "sm": 1815,
      "toc": 1816,
      "typ": 1817,
      "ues": 1818,
      "yro": 1819,
      "Ġ\"": 1820,
      "inu": 1821,
      "inical": 1822,
      "ints": 1823,
      "til": 1824,
      "read": 1825,
      "Ġsen": 1826,
      "Ġsel": 1827,
      "Ġserv": 1828,
      "Ġsites": 1829,
      "Ġsentence": 1830,
      "ork": 1831,
      "eness": 1832,
      "era": 1833,
      "eric": 1834,
      "ercial": 1835,
      "Ġcort": 1836,
      "Ġcust": 1837,
      "arg": 1838,
      "aring": 1839,
      "Ġfing": 1840,
      "Ġfree": 1841,
      "Ġtv": 1842,
      "Ġmag": 1843,
      "Ġmap": 1844,
      "Ġmix": 1845,
      "atment": 1846,
      "asc": 1847,
      "ask": 1848,
      "aster": 1849,
      "itect": 1850,
      "Ġren": 1851,
      "Ġins": 1852,
      "Ġinput": 1853,
      "Ġpresi": 1854,
      "sitions": 1855,
      "Ġlevel": 1856,
      "Ġbill": 1857,
      "oma": 1858,
      "ome": 1859,
      "omer": 1860,
      "Ġnav": 1861,
      "ection": 1862,
      "Ġusage": 1863,
      "Ġgood": 1864,
      "eld": 1865,
      "els": 1866,
      "Ġwall": 1867,
      "Ġwell": 1868,
      "Ġclinical": 1869,
      "Ġeeg": 1870,
      "Ġlight": 1871,
      "uration": 1872,
      "ticle": 1873,
      "Ġhit": 1874,
      "Ġhold": 1875,
      "amm": 1876,
      "ung": 1877,
      "Ġsee": 1878,
      "igation": 1879,
      "Ġneigh": 1880,
      "vival": 1881,
      "Ġgenres": 1882,
      "Ġcomb": 1883,
      "Ġrand": 1884,
      "Ġrna": 1885,
      "Ġmodelling": 1886,
      "idity": 1887,
      "Ġall": 1888,
      "Ġuncert": 1889,
      "Ġaction": 1890,
      "Ġacad": 1891,
      "Ġcomponent": 1892,
      "opter": 1893,
      "raction": 1894,
      "Ġyork": 1895,
      "thes": 1896,
      "Ġart": 1897,
      "Ġarch": 1898,
      "Ġarray": 1899,
      "Ġquad": 1900,
      "Ġtexas": 1901,
      "Ġintr": 1902,
      "Ġscans": 1903,
      "Ġbeating": 1904,
      "Ġposition": 1905,
      "Ġstocks": 1906,
      "Ġrobust": 1907,
      "Ġfactors": 1908,
      "dering": 1909,
      "Ġsho": 1910,
      "tiveness": 1911,
      "Ġoptimizing": 1912,
      "Ġregul": 1913,
      "Ġregion": 1914,
      "Ġphy": 1915,
      "Ġinterac": 1916,
      "Ġsoccer": 1917,
      "Ġvideos": 1918,
      "ences": 1919,
      "encod": 1920,
      "Ġaccent": 1921,
      "Ġsensing": 1922,
      "Ġsensors": 1923,
      "Ġworl": 1924,
      "Ġdecoding": 1925,
      "Ġlif": 1926,
      "Ġcommercial": 1927,
      "Ġcorre": 1928,
      "Ġabout": 1929,
      "ometric": 1930,
      "Ġdiagnosing": 1931,
      "tention": 1932,
      "Ġpolic": 1933,
      "Ġwirele": 1934,
      "Ġsongs": 1935,
      "Ġpreference": 1936,
      "Ġearly": 1937,
      "Ġsurve": 1938,
      "Ġsurvival": 1939,
      "ishing": 1940,
      "Ġbetwe": 1941,
      "Ġrank": 1942,
      "Ġdimensionality": 1943,
      "Ġgenomic": 1944,
      "class": 1945,
      "Ġeconomic": 1946,
      "Ġcardi": 1947,
      "Ġmanagement": 1948,
      "Ġdocument": 1949,
      "ography": 1950,
      "Ġschool": 1951,
      "Ġmedical": 1952,
      "Ġemails": 1953,
      "Ġfunctional": 1954,
      "Ġsound": 1955,
      "Ġdatasets": 1956,
      "Ġprofiles": 1957,
      "Ġautoencod": 1958,
      "Ġsynthes": 1959,
      "ranial": 1960,
      "Ġlegal": 1961,
      "greg": 1962,
      "ways": 1963,
      "Ġtreatment": 1964,
      "Ġremote": 1965,
      "Ġeffect": 1966,
      "Ġvolum": 1967,
      "Ġproper": 1968,
      "Ġcolorization": 1969,
      "Ġcareer": 1970,
      "Ġdenois": 1971,
      "Ġcomplex": 1972,
      "Ġbayesian": 1973,
      "Ġdiscovery": 1974,
      "Ġstatistics": 1975,
      "Ġspecific": 1976,
      "Ġensemble": 1977,
      "Ġrestaurant": 1978,
      "Ġdeveloping": 1979,
      "Ġcampaign": 1980,
      "Ġmaking": 1981,
      "Ġefficient": 1982,
      "Ġseizure": 1983,
      "Ġprofession": 1984,
      "Ġtrajectories": 1985,
      "Ġcontext": 1986,
      "Ġmalicious": 1987,
      "Ġleague": 1988,
      "Ġgalaxy": 1989,
      "Ġfrequency": 1990,
      "Ġself": 1991,
      "Ġnavigation": 1992,
      "Ġneighbor": 1993,
      "Ġacadem": 1994,
      "Ġwireless": 1995,
      "Ġbetween": 1996,
      "Ġdenoising": 1997,
      "app": 1998,
      "bo": 1999,
      "cent": 2000,
      "coding": 2001,
      "dual": 2002,
      "eti": 2003,
      "eval": 2004,
      "ger": 2005,
      "ground": 2006,
      "jec": 2007,
      "know": 2008,
      "li": 2009,
      "las": 2010,
      "mm": 2011,
      "oti": 2012,
      "oid": 2013,
      "ound": 2014,
      "ration": 2015,
      "ris": 2016,
      "rality": 2017,
      "sh": 2018,
      "stic": 2019,
      "site": 2020,
      "the": 2021,
      "ules": 2022,
      "ves": 2023,
      "ved": 2024,
      "vari": 2025,
      "ware": 2026,
      "ye": 2027,
      "Ġ&": 2028,
      "Ġend": 2029,
      "ination": 2030,
      "inect": 2031,
      "tif": 2032,
      "till": 2033,
      "ings": 2034,
      "Ġaff": 2035,
      "Ġsan": 2036,
      "Ġset": 2037,
      "Ġsec": 2038,
      "Ġsup": 2039,
      "Ġsaf": 2040,
      "Ġstill": 2041,
      "Ġped": 2042,
      "Ġpul": 2043,
      "Ġpot": 2044,
      "Ġpick": 2045,
      "Ġpair": 2046,
      "entic": 2047,
      "ero": 2048,
      "eral": 2049,
      "erpr": 2050,
      "Ġca": 2051,
      "Ġcy": 2052,
      "Ġcand": 2053,
      "Ġcnn": 2054,
      "Ġcross": 2055,
      "Ġcode": 2056,
      "arc": 2057,
      "arm": 2058,
      "Ġtri": 2059,
      "Ġtax": 2060,
      "alog": 2061,
      "Ġmel": 2062,
      "Ġdomain": 2063,
      "Ġduring": 2064,
      "lege": 2065,
      "estion": 2066,
      "ases": 2067,
      "itch": 2068,
      "Ġrese": 2069,
      "Ġretri": 2070,
      "Ġreven": 2071,
      "Ġinf": 2072,
      "Ġincom": 2073,
      "Ġinflu": 2074,
      "sist": 2075,
      "Ġban": 2076,
      "Ġbir": 2077,
      "Ġgas": 2078,
      "Ġwind": 2079,
      "Ġclass": 2080,
      "here": 2081,
      "Ġele": 2082,
      "Ġever": 2083,
      "Ġtool": 2084,
      "Ġstren": 2085,
      "Ġstay": 2086,
      "Ġlis": 2087,
      "Ġlst": 2088,
      "Ġlab": 2089,
      "Ġland": 2090,
      "Ġlens": 2091,
      "raph": 2092,
      "Ġclassify": 2093,
      "Ġtheir": 2094,
      "stroke": 2095,
      "Ġhid": 2096,
      "Ġrecip": 2097,
      "term": 2098,
      "Ġvoc": 2099,
      "Ġvir": 2100,
      "Ġvie": 2101,
      "ogle": 2102,
      "ulum": 2103,
      "Ġone": 2104,
      "Ġonset": 2105,
      "och": 2106,
      "Ġwithout": 2107,
      "Ġneu": 2108,
      "Ġneur": 2109,
      "Ġdetector": 2110,
      "Ġconstruction": 2111,
      "oth": 2112,
      "vious": 2113,
      "Ġgenes": 2114,
      "Ġcomment": 2115,
      "Ġrun": 2116,
      "Ġrecognize": 2117,
      "sions": 2118,
      "dential": 2119,
      "Ġspam": 2120,
      "Ġspace": 2121,
      "Ġchrom": 2122,
      "Ġmotif": 2123,
      "Ġalignment": 2124,
      "Ġunknow": 2125,
      "ayer": 2126,
      "Ġacross": 2127,
      "Ġdiscri": 2128,
      "Ġtravel": 2129,
      "racranial": 2130,
      "Ġkinect": 2131,
      "Ġopen": 2132,
      "aper": 2133,
      "Ġcontinu": 2134,
      "Ġthis": 2135,
      "Ġthyro": 2136,
      "Ġattention": 2137,
      "Ġintracranial": 2138,
      "Ġsci": 2139,
      "Ġscore": 2140,
      "Ġscores": 2141,
      "Ġreson": 2142,
      "Ġresolution": 2143,
      "Ġbeat": 2144,
      "Ġtechn": 2145,
      "linear": 2146,
      "duction": 2147,
      "Ġextension": 2148,
      "Ġparticle": 2149,
      "Ġsegmented": 2150,
      "Ġcollege": 2151,
      "Ġmarkets": 2152,
      "Ġinteraction": 2153,
      "Ġevent": 2154,
      "Ġjoint": 2155,
      "Ġlocation": 2156,
      "Ġcharacteristics": 2157,
      "orship": 2158,
      "Ġgrad": 2159,
      "Ġwhen": 2160,
      "structured": 2161,
      "Ġimproved": 2162,
      "Ġplayers": 2163,
      "Ġlik": 2164,
      "ronic": 2165,
      "Ġorient": 2166,
      "Ġbook": 2167,
      "Ġcorpor": 2168,
      "ometry": 2169,
      "Ġtracing": 2170,
      "Ġloan": 2171,
      "Ġvariation": 2172,
      "Ġexpressions": 2173,
      "Ġearning": 2174,
      "Ġproduction": 2175,
      "Ġgait": 2176,
      "Ġcomputational": 2177,
      "Ġkeystroke": 2178,
      "ÂĢÂĻ": 2179,
      "Ġtypes": 2180,
      "Ġweath": 2181,
      "Ġreduced": 2182,
      "Ġphoto": 2183,
      "Ġits": 2184,
      "Ġteach": 2185,
      "Ġrecursive": 2186,
      "Ġdefault": 2187,
      "Ġecg": 2188,
      "Ġcredit": 2189,
      "ographic": 2190,
      "Ġauthentic": 2191,
      "Ġauthorship": 2192,
      "scale": 2193,
      "Ġpriv": 2194,
      "Ġevaluating": 2195,
      "Ġeduc": 2196,
      "umption": 2197,
      "Ġparameter": 2198,
      "Ġcommunication": 2199,
      "Ġcommunities": 2200,
      "green": 2201,
      "Ġconsumption": 2202,
      "Ġrelevance": 2203,
      "Ġgoogle": 2204,
      "Ġlogistic": 2205,
      "Ġvalue": 2206,
      "Ġdirect": 2207,
      "Ġexperience": 2208,
      "Ġrepresentations": 2209,
      "Ġkeyword": 2210,
      "Ġkeywords": 2211,
      "Ġcryp": 2212,
      "Ġminim": 2213,
      "Ġimplementing": 2214,
      "Ġmeasurements": 2215,
      "ledge": 2216,
      "Ġanswering": 2217,
      "Ġnumber": 2218,
      "Ġhistory": 2219,
      "Ġconfig": 2220,
      "Ġmolecular": 2221,
      "Ġknowledge": 2222,
      "Ġsimilarity": 2223,
      "Ġassessing": 2224,
      "Ġsnake": 2225,
      "Ġcamera": 2226,
      "Ġmemory": 2227,
      "Ġdown": 2228,
      "Ġother": 2229,
      "Ġneutrality": 2230,
      "Ġspatial": 2231,
      "Ġarrhythmia": 2232,
      "Ġassociation": 2233,
      "Ġstrategies": 2234,
      "Ġgrasping": 2235,
      "Ġrossmann": 2236,
      "Ġcortex": 2237,
      "Ġcustomer": 2238,
      "Ġfingerpr": 2239,
      "Ġpresidential": 2240,
      "Ġrandom": 2241,
      "Ġarchitect": 2242,
      "Ġintrusion": 2243,
      "gregation": 2244,
      "Ġproperties": 2245,
      "Ġprofessional": 2246,
      "Ġneighborhood": 2247,
      "Ġsuper": 2248,
      "Ġcandid": 2249,
      "Ġresearch": 2250,
      "Ġretrieval": 2251,
      "Ġevergreen": 2252,
      "Ġstrength": 2253,
      "Ġhidden": 2254,
      "Ġvocal": 2255,
      "Ġvirtual": 2256,
      "Ġview": 2257,
      "Ġunknown": 2258,
      "Ġdiscrimin": 2259,
      "Ġthyroid": 2260,
      "Ġorientation": 2261,
      "Ġcorporate": 2262,
      "Ġweather": 2263,
      "Ġauthentication": 2264,
      "aw": 2265,
      "aut": 2266,
      "aint": 2267,
      "bl": 2268,
      "by": 2269,
      "bit": 2270,
      "cy": 2271,
      "cation": 2272,
      "ced": 2273,
      "cup": 2274,
      "domain": 2275,
      "ful": 2276,
      "ht": 2277,
      "hts": 2278,
      "ium": 2279,
      "ift": 2280,
      "iven": 2281,
      "ker": 2282,
      "kers": 2283,
      "lan": 2284,
      "lines": 2285,
      "list": 2286,
      "ml": 2287,
      "ming": 2288,
      "mark": 2289,
      "ove": 2290,
      "over": 2291,
      "pe": 2292,
      "pective": 2293,
      "perature": 2294,
      "risk": 2295,
      "sy": 2296,
      "ta": 2297,
      "tal": 2298,
      "uti": 2299,
      "uting": 2300,
      "vanced": 2301,
      "xim": 2302,
      "Ġ#": 2303,
      "Ġ:": 2304,
      "Ġz": 2305,
      "Ġess": 2306,
      "Ġrain": 2307,
      "Ġult": 2308,
      "Ġurb": 2309,
      "inal": 2310,
      "Ġaf": 2311,
      "Ġaerial": 2312,
      "Ġauti": 2313,
      "icopter": 2314,
      "Ġsl": 2315,
      "Ġsw": 2316,
      "Ġshe": 2317,
      "Ġsqu": 2318,
      "Ġpac": 2319,
      "Ġpur": 2320,
      "Ġprom": 2321,
      "Ġpend": 2322,
      "Ġpass": 2323,
      "Ġpca": 2324,
      "Ġpitch": 2325,
      "oration": 2326,
      "orage": 2327,
      "order": 2328,
      "orpor": 2329,
      "enn": 2330,
      "erg": 2331,
      "errain": 2332,
      "Ġcro": 2333,
      "Ġcur": 2334,
      "Ġcogni": 2335,
      "Ġcall": 2336,
      "Ġcase": 2337,
      "arter": 2338,
      "arth": 2339,
      "Ġful": 2340,
      "Ġfail": 2341,
      "Ġfusion": 2342,
      "Ġfib": 2343,
      "Ġtac": 2344,
      "Ġtarg": 2345,
      "Ġterrain": 2346,
      "alle": 2347,
      "Ġmy": 2348,
      "Ġmis": 2349,
      "Ġmut": 2350,
      "Ġmad": 2351,
      "Ġmass": 2352,
      "Ġdam": 2353,
      "Ġdot": 2354,
      "Ġderi": 2355,
      "level": 2356,
      "Ġour": 2357,
      "estri": 2358,
      "ata": 2359,
      "atter": 2360,
      "ason": 2361,
      "astic": 2362,
      "iting": 2363,
      "Ġread": 2364,
      "Ġinn": 2365,
      "Ġinver": 2366,
      "Ġinsur": 2367,
      "Ġinsig": 2368,
      "Ġinduction": 2369,
      "Ġpres": 2370,
      "Ġprevious": 2371,
      "sitivity": 2372,
      "eting": 2373,
      "eter": 2374,
      "Ġbro": 2375,
      "Ġbel": 2376,
      "Ġbad": 2377,
      "Ġback": 2378,
      "omotion": 2379,
      "Ġnan": 2380,
      "Ġnode": 2381,
      "Ġnyc": 2382,
      "Ġforce": 2383,
      "Ġget": 2384,
      "Ġgiven": 2385,
      "elicopter": 2386,
      "Ġwave": 2387,
      "isco": 2388,
      "Ġid": 2389,
      "agging": 2390,
      "ute": 2391,
      "Ġste": 2392,
      "Ġstat": 2393,
      "Ġstan": 2394,
      "Ġstop": 2395,
      "Ġstair": 2396,
      "Ġstoch": 2397,
      "Ġstorage": 2398,
      "Ġlit": 2399,
      "Ġlate": 2400,
      "Ġlong": 2401,
      "Ġlending": 2402,
      "Ġlung": 2403,
      "urren": 2404,
      "state": 2405,
      "strain": 2406,
      "Ġhal": 2407,
      "Ġhelp": 2408,
      "Ġhack": 2409,
      "Ġhelicopter": 2410,
      "rix": 2411,
      "ild": 2412,
      "Ġimm": 2413,
      "ential": 2414,
      "nia": 2415,
      "Ġsever": 2416,
      "Ġseism": 2417,
      "Ġconn": 2418,
      "Ġconvers": 2419,
      "Ġcondition": 2420,
      "otyp": 2421,
      "Ġexamp": 2422,
      "vies": 2423,
      "Ġgender": 2424,
      "ize": 2425,
      "ects": 2426,
      "umer": 2427,
      "ford": 2428,
      "Ġspac": 2429,
      "Ġspot": 2430,
      "Ġspok": 2431,
      "Ġspread": 2432,
      "chas": 2433,
      "Ġchess": 2434,
      "Ġchang": 2435,
      "Ġchest": 2436,
      "Ġanalytics": 2437,
      "Ġmood": 2438,
      "Ġmovies": 2439,
      "Ġalert": 2440,
      "ressive": 2441,
      "endent": 2442,
      "Ġcomposition": 2443,
      "Ġcompeti": 2444,
      "ependent": 2445,
      "Ġtrain": 2446,
      "Ġexpect": 2447,
      "Ġke": 2448,
      "Ġoption": 2449,
      "Ġoptions": 2450,
      "Ġencoding": 2451,
      "Ġrecommending": 2452,
      "Ġqueries": 2453,
      "ugg": 2454,
      "ancy": 2455,
      "ances": 2456,
      "ancisco": 2457,
      "atical": 2458,
      "Ġadvanced": 2459,
      "Ġcluster": 2460,
      "Ġattribut": 2461,
      "Ġtexts": 2462,
      "Ġintere": 2463,
      "Ġintensity": 2464,
      "ighting": 2465,
      "Ġresult": 2466,
      "Ġbeer": 2467,
      "Ġempl": 2468,
      "Ġshock": 2469,
      "Ġsharing": 2470,
      "ours": 2471,
      "Ġtwo": 2472,
      "Ġmetrics": 2473,
      "Ġpercep": 2474,
      "Ġparti": 2475,
      "Ġparsing": 2476,
      "Ġparalle": 2477,
      "Ġsegmenting": 2478,
      "Ġcoll": 2479,
      "Ġregular": 2480,
      "Ġfinal": 2481,
      "Ġinterface": 2482,
      "Ġjob": 2483,
      "Ġwebsite": 2484,
      "Ġlocomotion": 2485,
      "Ġsignature": 2486,
      "Ġspeed": 2487,
      "Ġwho": 2488,
      "flow": 2489,
      "Ġcost": 2490,
      "Ġplayer": 2491,
      "Ġrobots": 2492,
      "Ġcellular": 2493,
      "Ġdifference": 2494,
      "Ġdifferential": 2495,
      "Ġperspective": 2496,
      "Ġbuild": 2497,
      "Ġorder": 2498,
      "Ġreports": 2499,
      "Ġboard": 2500,
      "Ġstructured": 2501,
      "Ġrelation": 2502,
      "Ġindex": 2503,
      "Ġindependent": 2504,
      "Ġabs": 2505,
      "Ġameric": 2506,
      "Ġbasis": 2507,
      "Ġtopics": 2508,
      "ogram": 2509,
      "Ġagain": 2510,
      "Ġnonlinear": 2511,
      "Ġadaptation": 2512,
      "Ġprobability": 2513,
      "aves": 2514,
      "ryst": 2515,
      "Ġground": 2516,
      "Ġproducts": 2517,
      "Ġdiseases": 2518,
      "ertex": 2519,
      "Ġprocesses": 2520,
      "Ġsimulated": 2521,
      "Ġsimulator": 2522,
      "Ġiss": 2523,
      "Ġairline": 2524,
      "Ġinvari": 2525,
      "Ġsmartphone": 2526,
      "Ġdimensions": 2527,
      "Ġdimensional": 2528,
      "Ġappliance": 2529,
      "Ġarticle": 2530,
      "Ġmeasuring": 2531,
      "Ġblood": 2532,
      "Ġblind": 2533,
      "Ġrecord": 2534,
      "Ġproblems": 2535,
      "Ġpathways": 2536,
      "Ġarea": 2537,
      "Ġauthor": 2538,
      "Ġcalib": 2539,
      "Ġincorpor": 2540,
      "Ġartist": 2541,
      "Ġquantification": 2542,
      "Ġquantifying": 2543,
      "Ġattrac": 2544,
      "ief": 2545,
      "Ġimprovement": 2546,
      "Ġhandwriting": 2547,
      "Ġbusinesses": 2548,
      "Ġtrees": 2549,
      "Ġoccl": 2550,
      "Ġoccup": 2551,
      "Ġremo": 2552,
      "Ġconsumer": 2553,
      "Ġrelevant": 2554,
      "Ġtumors": 2555,
      "Ġdirection": 2556,
      "Ġexperiment": 2557,
      "Ġgeneralized": 2558,
      "Ġsampling": 2559,
      "Ġgps": 2560,
      "Ġhyper": 2561,
      "Ġspectral": 2562,
      "Ġmeasurement": 2563,
      "lides": 2564,
      "Ġaided": 2565,
      "Ġpaintings": 2566,
      "Ġcourses": 2567,
      "Ġfield": 2568,
      "Ġfrancisco": 2569,
      "Ġhousing": 2570,
      "Ġobserving": 2571,
      "Ġaccurate": 2572,
      "Ġaccuracy": 2573,
      "Ġrapid": 2574,
      "Ġdelays": 2575,
      "Ġmaximizing": 2576,
      "Ġkernels": 2577,
      "ruped": 2578,
      "Ġrig": 2579,
      "Ġmagnetic": 2580,
      "Ġmorphological": 2581,
      "Ġanomaly": 2582,
      "Ġlink": 2583,
      "Ġhyd": 2584,
      "Ġcompany": 2585,
      "Ġspeaker": 2586,
      "Ġdescriptors": 2587,
      "Ġembeddings": 2588,
      "Ġinvestigating": 2589,
      "tocurren": 2590,
      "Ġmagic": 2591,
      "ascular": 2592,
      "Ġinsults": 2593,
      "Ġalloc": 2594,
      "Ġuncertaint": 2595,
      "Ġregions": 2596,
      "Ġinteractions": 2597,
      "Ġworlds": 2598,
      "Ġlife": 2599,
      "Ġcardiac": 2600,
      "Ġvolume": 2601,
      "Ġacademic": 2602,
      "Ġpedestri": 2603,
      "Ġpairs": 2604,
      "Ġtaxi": 2605,
      "Ġmelody": 2606,
      "Ġbird": 2607,
      "Ġrecipe": 2608,
      "Ġcontinuous": 2609,
      "Ġresonance": 2610,
      "Ġlikel": 2611,
      "Ġearnings": 2612,
      "Ġcryptocurren": 2613,
      "Ġcandidates": 2614,
      "Ġdiscriminative": 2615,
      "Ġessay": 2616,
      "Ġultras": 2617,
      "Ġurban": 2618,
      "Ġautism": 2619,
      "Ġpendulum": 2620,
      "Ġcognitive": 2621,
      "Ġdota": 2622,
      "Ġinverted": 2623,
      "Ġinsurance": 2624,
      "Ġinsights": 2625,
      "Ġstochastic": 2626,
      "Ġlatex": 2627,
      "Ġseismic": 2628,
      "Ġspoken": 2629,
      "Ġattributes": 2630,
      "Ġemplo": 2631,
      "Ġparallel": 2632,
      "Ġamerican": 2633,
      "Ġincorporating": 2634,
      "Ġuncertainty": 2635,
      "Ġpedestrian": 2636,
      "Ġcryptocurrency": 2637,
      "12": 2638,
      "86": 2639,
      "aining": 2640,
      "aults": 2641,
      "atives": 2642,
      "be": 2643,
      "bre": 2644,
      "bot": 2645,
      "bling": 2646,
      "bility": 2647,
      "cc": 2648,
      "cd": 2649,
      "ck": 2650,
      "col": 2651,
      "cam": 2652,
      "cell": 2653,
      "db": 2654,
      "des": 2655,
      "dom": 2656,
      "gb": 2657,
      "gi": 2658,
      "gle": 2659,
      "gue": 2660,
      "gery": 2661,
      "hc": 2662,
      "ive": 2663,
      "ifor": 2664,
      "jor": 2665,
      "ken": 2666,
      "ld": 2667,
      "lo": 2668,
      "ls": 2669,
      "lity": 2670,
      "lers": 2671,
      "lim": 2672,
      "ma": 2673,
      "mic": 2674,
      "mal": 2675,
      "met": 2676,
      "mach": 2677,
      "ney": 2678,
      "oo": 2679,
      "oice": 2680,
      "ositions": 2681,
      "pro": 2682,
      "pol": 2683,
      "pect": 2684,
      "point": 2685,
      "paper": 2686,
      "rum": 2687,
      "rated": 2688,
      "rary": 2689,
      "sa": 2690,
      "sti": 2691,
      "sics": 2692,
      "tu": 2693,
      "ton": 2694,
      "tle": 2695,
      "tage": 2696,
      "tem": 2697,
      "task": 2698,
      "uk": 2699,
      "uce": 2700,
      "uff": 2701,
      "uishing": 2702,
      "vit": 2703,
      "vascular": 2704,
      "wd": 2705,
      "xt": 2706,
      "yms": 2707,
      "yscale": 2708,
      "zy": 2709,
      "zhe": 2710,
      "Ġur": 2711,
      "ined": 2712,
      "inoma": 2713,
      "tiation": 2714,
      "ont": 2715,
      "onary": 2716,
      "rest": 2717,
      "Ġast": 2718,
      "Ġaver": 2719,
      "Ġaug": 2720,
      "Ġaest": 2721,
      "icit": 2722,
      "Ġsets": 2723,
      "Ġsarc": 2724,
      "Ġsugg": 2725,
      "Ġpp": 2726,
      "Ġpic": 2727,
      "Ġpor": 2728,
      "Ġpep": 2729,
      "Ġpark": 2730,
      "Ġpip": 2731,
      "Ġpian": 2732,
      "Ġpump": 2733,
      "ord": 2734,
      "orac": 2735,
      "ense": 2736,
      "ensive": 2737,
      "enotyp": 2738,
      "erce": 2739,
      "Ġcs": 2740,
      "Ġcat": 2741,
      "Ġcup": 2742,
      "Ġcart": 2743,
      "Ġcopy": 2744,
      "Ġcryst": 2745,
      "arms": 2746,
      "arable": 2747,
      "Ġfal": 2748,
      "Ġfam": 2749,
      "Ġfake": 2750,
      "Ġfair": 2751,
      "Ġfarm": 2752,
      "Ġtet": 2753,
      "Ġtell": 2754,
      "Ġtree": 2755,
      "Ġturb": 2756,
      "Ġtenn": 2757,
      "alman": 2758,
      "alable": 2759,
      "Ġmar": 2760,
      "Ġmac": 2761,
      "Ġmed": 2762,
      "Ġmom": 2763,
      "Ġmassi": 2764,
      "Ġmess": 2765,
      "Ġmaster": 2766,
      "Ġmamm": 2767,
      "Ġdin": 2768,
      "Ġdon": 2769,
      "Ġdance": 2770,
      "Ġdna": 2771,
      "Ġdraft": 2772,
      "Ġdrop": 2773,
      "Ġdensity": 2774,
      "let": 2775,
      "leoti": 2776,
      "Ġod": 2777,
      "atin": 2778,
      "ators": 2779,
      "athy": 2780,
      "ustion": 2781,
      "ustering": 2782,
      "ash": 2783,
      "asm": 2784,
      "roc": 2785,
      "analy": 2786,
      "itation": 2787,
      "itable": 2788,
      "Ġrea": 2789,
      "Ġresi": 2790,
      "Ġreward": 2791,
      "Ġreaction": 2792,
      "Ġinvers": 2793,
      "Ġinference": 2794,
      "acc": 2795,
      "active": 2796,
      "Ġpress": 2797,
      "Ġpremi": 2798,
      "Ġlec": 2799,
      "Ġpredictors": 2800,
      "Ġanc": 2801,
      "Ġany": 2802,
      "Ġben": 2803,
      "Ġbil": 2804,
      "Ġbub": 2805,
      "omy": 2806,
      "omark": 2807,
      "Ġnl": 2808,
      "Ġnor": 2809,
      "Ġnar": 2810,
      "Ġnuc": 2811,
      "Ġnai": 2812,
      "ecraft": 2813,
      "ectiveness": 2814,
      "entum": 2815,
      "Ġforum": 2816,
      "tinguishing": 2817,
      "Ġgath": 2818,
      "Ġgrid": 2819,
      "eline": 2820,
      "Ġwa": 2821,
      "Ġway": 2822,
      "Ġwrit": 2823,
      "Ġwaves": 2824,
      "Ġclim": 2825,
      "Ġeig": 2826,
      "Ġeye": 2827,
      "agation": 2828,
      "agent": 2829,
      "Ġstep": 2830,
      "Ġstatic": 2831,
      "Ġstart": 2832,
      "Ġstability": 2833,
      "Ġstroke": 2834,
      "Ġlaw": 2835,
      "urn": 2836,
      "ury": 2837,
      "stac": 2838,
      "sted": 2839,
      "step": 2840,
      "Ġho": 2841,
      "Ġhig": 2842,
      "Ġhad": 2843,
      "Ġhos": 2844,
      "Ġheter": 2845,
      "Ġvers": 2846,
      "Ġvalu": 2847,
      "Ġvertex": 2848,
      "odity": 2849,
      "ogen": 2850,
      "ogene": 2851,
      "ulate": 2852,
      "ulations": 2853,
      "riend": 2854,
      "aming": 2855,
      "ocus": 2856,
      "ocular": 2857,
      "une": 2858,
      "entific": 2859,
      "Ġdating": 2860,
      "Ġsea": 2861,
      "igraph": 2862,
      "Ġdatab": 2863,
      "Ġprojec": 2864,
      "Ġproxim": 2865,
      "Ġneg": 2866,
      "Ġnext": 2867,
      "quidity": 2868,
      "Ġconver": 2869,
      "Ġconstrain": 2870,
      "Ġnets": 2871,
      "Ġdeform": 2872,
      "umm": 2873,
      "Ġrc": 2874,
      "Ġrss": 2875,
      "Ġrace": 2876,
      "Ġrange": 2877,
      "Ġrgb": 2878,
      "Ġspl": 2879,
      "ches": 2880,
      "ables": 2881,
      "Ġchange": 2882,
      "rich": 2883,
      "ups": 2884,
      "Ġmooc": 2885,
      "Ġmouse": 2886,
      "Ġdiver": 2887,
      "ows": 2888,
      "Ġaltern": 2889,
      "Ġalzhe": 2890,
      "Ġunstructured": 2891,
      "Ġactive": 2892,
      "Ġactions": 2893,
      "Ġaccess": 2894,
      "respon": 2895,
      "Ġcompens": 2896,
      "Ġcompositions": 2897,
      "oph": 2898,
      "oplan": 2899,
      "opathy": 2900,
      "Ġdisaster": 2901,
      "Ġdistinguishing": 2902,
      "Ġroll": 2903,
      "Ġexper": 2904,
      "Ġexpedia": 2905,
      "rack": 2906,
      "racts": 2907,
      "Ġknn": 2908,
      "Ġkalman": 2909,
      "view": 2910,
      "verti": 2911,
      "verty": 2912,
      "Ġye": 2913,
      "ade": 2914,
      "Ġarbit": 2915,
      "ommerce": 2916,
      "apse": 2917,
      "Ġquarter": 2918,
      "Ġthat": 2919,
      "Ġthorac": 2920,
      "imer": 2921,
      "imaging": 2922,
      "ancing": 2923,
      "ude": 2924,
      "Ġobstac": 2925,
      "see": 2926,
      "Ġadverti": 2927,
      "Ġgenerated": 2928,
      "Ġgenerator": 2929,
      "Ġatari": 2930,
      "Ġatlas": 2931,
      "Ġtexture": 2932,
      "Ġinteg": 2933,
      "ights": 2934,
      "Ġscan": 2935,
      "Ġscoring": 2936,
      "Ġscale": 2937,
      "Ġscalable": 2938,
      "Ġempi": 2939,
      "Ġemerg": 2940,
      "Ġpositions": 2941,
      "Ġpoker": 2942,
      "Ġpoverty": 2943,
      "Ġshot": 2944,
      "Ġshare": 2945,
      "Ġflu": 2946,
      "Ġflapp": 2947,
      "uble": 2948,
      "Ġtechnique": 2949,
      "Ġperme": 2950,
      "Ġpartial": 2951,
      "Ġcollid": 2952,
      "Ġmath": 2953,
      "Ġmaterial": 2954,
      "Ġmatrix": 2955,
      "astoma": 2956,
      "iobl": 2957,
      "iovascular": 2958,
      "Ġphones": 2959,
      "Ġphenotyp": 2960,
      "Ġfind": 2961,
      "Ġtranslation": 2962,
      "atility": 2963,
      "Ġpatent": 2964,
      "Ġjet": 2965,
      "Ġwebcam": 2966,
      "cost": 2967,
      "coun": 2968,
      "Ġexplore": 2969,
      "Ġexploration": 2970,
      "Ġexplicit": 2971,
      "Ġbiological": 2972,
      "Ġbiomark": 2973,
      "Ġcontroller": 2974,
      "Ġgrade": 2975,
      "Ġgramm": 2976,
      "Ġgravit": 2977,
      "Ġgrayscale": 2978,
      "structing": 2979,
      "undary": 2980,
      "encies": 2981,
      "Ġcover": 2982,
      "Ġcosts": 2983,
      "Ġplays": 2984,
      "Ġplaylist": 2985,
      "Ġwork": 2986,
      "Ġdifferentiation": 2987,
      "Ġperson": 2988,
      "Ġdecay": 2989,
      "Ġlive": 2990,
      "Ġliver": 2991,
      "Ġliquidity": 2992,
      "Ġreport": 2993,
      "Ġboundary": 2994,
      "Ġcommon": 2995,
      "Ġcommodity": 2996,
      "Ġreli": 2997,
      "Ġrelative": 2998,
      "lected": 2999,
      "Ġcorrec": 3000,
      "Ġcorrup": 3001,
      "Ġcorrespon": 3002,
      "Ġbehavioral": 3003,
      "Ġabst": 3004,
      "Ġabove": 3005,
      "Ġbuildings": 3006,
      "paramet": 3007,
      "tered": 3008,
      "Ġassig": 3009,
      "Ġsubject": 3010,
      "Ġsubsur": 3011,
      "Ġsubtyp": 3012,
      "Ġdouble": 3013,
      "Ġbase": 3014,
      "Ġbasket": 3015,
      "Ġtopological": 3016,
      "ograms": 3017,
      "Ġaggregation": 3018,
      "Ġpopulations": 3019,
      "Ġwifi": 3020,
      "Ġvariance": 3021,
      "Ġvariations": 3022,
      "Ġvariants": 3023,
      "illance": 3024,
      "azz": 3025,
      "ilep": 3026,
      "Ġsvms": 3027,
      "Ġelectronic": 3028,
      "Ġsurface": 3029,
      "Ġsolving": 3030,
      "Ġreturn": 3031,
      "Ġvisualization": 3032,
      "Ġcomputation": 3033,
      "ficial": 3034,
      "Ġrad": 3035,
      "Ġray": 3036,
      "Ġradi": 3037,
      "atory": 3038,
      "Ġweak": 3039,
      "Ġwearable": 3040,
      "Ġfunctions": 3041,
      "Ġresponses": 3042,
      "Ġphotos": 3043,
      "Ġtele": 3044,
      "Ġtrend": 3045,
      "Ġgenomes": 3046,
      "Ġpeer": 3047,
      "Ġcreate": 3048,
      "Ġcardiovascular": 3049,
      "Ġfraud": 3050,
      "Ġmanip": 3051,
      "Ġbreak": 3052,
      "spe": 3053,
      "Ġareas": 3054,
      "Ġlearned": 3055,
      "Ġwordnet": 3056,
      "scopy": 3057,
      "Ġsoft": 3058,
      "Ġprim": 3059,
      "Ġprize": 3060,
      "Ġcalifor": 3061,
      "Ġtemperature": 3062,
      "Ġbinary": 3063,
      "Ġsequences": 3064,
      "Ġfeeds": 3065,
      "Ġartistic": 3066,
      "Ġartificial": 3067,
      "Ġvehicles": 3068,
      "erring": 3069,
      "Ġmajor": 3070,
      "Ġutil": 3071,
      "Ġfutures": 3072,
      "Ġocr": 3073,
      "Ġformation": 3074,
      "Ġgestures": 3075,
      "Ġeffectiveness": 3076,
      "Ġvolatility": 3077,
      "Ġforeign": 3078,
      "Ġforests": 3079,
      "Ġenhance": 3080,
      "Ġenhanced": 3081,
      "Ġnoisy": 3082,
      "Ġrankings": 3083,
      "touch": 3084,
      "Ġtumor": 3085,
      "Ġwinning": 3086,
      "Ġvalid": 3087,
      "Ġdevice": 3088,
      "Ġcompletion": 3089,
      "Ġintelligence": 3090,
      "Ġgraphical": 3091,
      "Ġrepresentation": 3092,
      "Ġdiscovering": 3093,
      "Ġsamplers": 3094,
      "Ġcapt": 3095,
      "Ġgpu": 3096,
      "Ġguid": 3097,
      "Ġstatistical": 3098,
      "Ġhypers": 3099,
      "Ġimplementation": 3100,
      "Ġcounting": 3101,
      "Ġrestaurants": 3102,
      "Ġcategorization": 3103,
      "Ġdevelopment": 3104,
      "factor": 3105,
      "ived": 3106,
      "Ġ10": 3107,
      "Ġfrag": 3108,
      "Ġgeological": 3109,
      "Ġgeometric": 3110,
      "Ġepilep": 3111,
      "Ġhouse": 3112,
      "Ġunited": 3113,
      "Ġfilters": 3114,
      "Ġretina": 3115,
      "Ġretinal": 3116,
      "Ġassessment": 3117,
      "Ġmaximum": 3118,
      "Ġica": 3119,
      "ondary": 3120,
      "Ġmorphology": 3121,
      "Ġanomal": 3122,
      "Ġgliobl": 3123,
      "Ġtowards": 3124,
      "Ġstreet": 3125,
      "Ġlinks": 3126,
      "Ġcongestion": 3127,
      "Ġcompanies": 3128,
      "Ġdiscus": 3129,
      "Ġopinions": 3130,
      "Ġheadlines": 3131,
      "Ġinterpretation": 3132,
      "ditional": 3133,
      "Ġembedding": 3134,
      "Ġinvestigation": 3135,
      "Ġsensitivity": 3136,
      "Ġservice": 3137,
      "Ġmixture": 3138,
      "Ġrendering": 3139,
      "Ġseeing": 3140,
      "Ġcombustion": 3141,
      "Ġquadruped": 3142,
      "Ġregulatory": 3143,
      "Ġcorrel": 3144,
      "Ġcorrelation": 3145,
      "Ġpolicy": 3146,
      "Ġpolicies": 3147,
      "Ġsurvey": 3148,
      "Ġsurveillance": 3149,
      "Ġautoencoders": 3150,
      "Ġsynthesis": 3151,
      "board": 3152,
      "Ġsecondary": 3153,
      "Ġpulse": 3154,
      "Ġpotential": 3155,
      "Ġcaus": 3156,
      "Ġrevenue": 3157,
      "Ġincoming": 3158,
      "Ġinfluence": 3159,
      "Ġbank": 3160,
      "Ġclassication": 3161,
      "Ġlstm": 3162,
      "Ġlabels": 3163,
      "Ġneuro": 3164,
      "Ġneuronal": 3165,
      "Ġcommentary": 3166,
      "Ġmotifs": 3167,
      "Ġscientific": 3168,
      "Ġtechnology": 3169,
      "Ġextensions": 3170,
      "Ġprivate": 3171,
      "Ġeducation": 3172,
      "Ġminimal": 3173,
      "Ġconfiguration": 3174,
      "Ġfingerprint": 3175,
      "Ġarchitecture": 3176,
      "fulness": 3177,
      "Ġcalligraph": 3178,
      "Ġtarget": 3179,
      "Ġmadness": 3180,
      "Ġdamage": 3181,
      "Ġinnov": 3182,
      "Ġbelief": 3183,
      "Ġstatus": 3184,
      "Ġstanford": 3185,
      "Ġliterature": 3186,
      "Ġhalos": 3187,
      "Ġhacking": 3188,
      "Ġseverity": 3189,
      "Ġexamples": 3190,
      "Ġchanges": 3191,
      "Ġkeyp": 3192,
      "Ġinterest": 3193,
      "Ġshocks": 3194,
      "Ġpartially": 3195,
      "Ġagainst": 3196,
      "Ġissue": 3197,
      "Ġattractiveness": 3198,
      "Ġocclusion": 3199,
      "Ġremoving": 3200,
      "Ġright": 3201,
      "Ġallocation": 3202,
      "Ġaugment": 3203,
      "Ġaesthe": 3204,
      "Ġsarcasm": 3205,
      "Ġpepti": 3206,
      "Ġpipeline": 3207,
      "Ġpiano": 3208,
      "Ġfalse": 3209,
      "Ġfamil": 3210,
      "Ġfairness": 3211,
      "Ġtetris": 3212,
      "Ġtennis": 3213,
      "Ġmomentum": 3214,
      "Ġmassive": 3215,
      "leotide": 3216,
      "Ġresidual": 3217,
      "Ġnucleotide": 3218,
      "Ġgathering": 3219,
      "Ġhiggs": 3220,
      "Ġhadron": 3221,
      "Ġhosp": 3222,
      "Ġheterogene": 3223,
      "Ġversus": 3224,
      "Ġprojecting": 3225,
      "Ġalzheimer": 3226,
      "Ġcompensation": 3227,
      "Ġthoracic": 3228,
      "Ġempiric": 3229,
      "Ġflappy": 3230,
      "Ġpermeability": 3231,
      "Ġcollider": 3232,
      "Ġsubsurface": 3233,
      "Ġbasketball": 3234,
      "Ġcalifornia": 3235,
      "Ġutilization": 3236,
      "Ġglioblastoma": 3237,
      "\":": 3238,
      "'m": 3239,
      "'t": 3240,
      "16": 3241,
      "200": 3242,
      "500": 3243,
      "?:": 3244,
      "ah": 3245,
      "ares": 3246,
      "bi": 3247,
      "bm": 3248,
      "bn": 3249,
      "bing": 3250,
      "bic": 3251,
      "bar": 3252,
      "bers": 3253,
      "bay": 3254,
      "bles": 3255,
      "brain": 3256,
      "brid": 3257,
      "brary": 3258,
      "cs": 3259,
      "cv": 3260,
      "cing": 3261,
      "cul": 3262,
      "cision": 3263,
      "cery": 3264,
      "cinoma": 3265,
      "commerce": 3266,
      "da": 3267,
      "df": 3268,
      "dy": 3269,
      "dec": 3270,
      "derv": 3271,
      "dress": 3272,
      "dger": 3273,
      "data": 3274,
      "eu": 3275,
      "eat": 3276,
      "eit": 3277,
      "fo": 3278,
      "fin": 3279,
      "ffor": 3280,
      "fall": 3281,
      "func": 3282,
      "fact": 3283,
      "fection": 3284,
      "gence": 3285,
      "gressive": 3286,
      "ho": 3287,
      "hoc": 3288,
      "hift": 3289,
      "ivi": 3290,
      "ience": 3291,
      "itial": 3292,
      "ifol": 3293,
      "iency": 3294,
      "itig": 3295,
      "ihood": 3296,
      "iogram": 3297,
      "kes": 3298,
      "la": 3299,
      "lin": 3300,
      "lication": 3301,
      "los": 3302,
      "lion": 3303,
      "layer": 3304,
      "lfactor": 3305,
      "mit": 3306,
      "med": 3307,
      "mis": 3308,
      "mod": 3309,
      "map": 3310,
      "mable": 3311,
      "mix": 3312,
      "monary": 3313,
      "ne": 3314,
      "nx": 3315,
      "nor": 3316,
      "nal": 3317,
      "native": 3318,
      "nase": 3319,
      "oes": 3320,
      "oting": 3321,
      "oating": 3322,
      "ooth": 3323,
      "po": 3324,
      "pt": 3325,
      "pal": 3326,
      "pus": 3327,
      "pur": 3328,
      "page": 3329,
      "port": 3330,
      "position": 3331,
      "rt": 3332,
      "ror": 3333,
      "rage": 3334,
      "rating": 3335,
      "rast": 3336,
      "ronom": 3337,
      "rish": 3338,
      "su": 3339,
      "sical": 3340,
      "sance": 3341,
      "slides": 3342,
      "sense": 3343,
      "tes": 3344,
      "tac": 3345,
      "tut": 3346,
      "tol": 3347,
      "tance": 3348,
      "tative": 3349,
      "tagging": 3350,
      "track": 3351,
      "uz": 3352,
      "utions": 3353,
      "uistic": 3354,
      "vent": 3355,
      "voc": 3356,
      "void": 3357,
      "wi": 3358,
      "wn": 3359,
      "wth": 3360,
      "wave": 3361,
      "xual": 3362,
      "yph": 3363,
      "yond": 3364,
      "zation": 3365,
      "zil": 3366,
      "Ġ'": 3367,
      "Ġ4": 3368,
      "Ġ8": 3369,
      "Ġet": 3370,
      "Ġent": 3371,
      "Ġel": 3372,
      "Ġut": 3373,
      "Ġtic": 3374,
      "Ġul": 3375,
      "induc": 3376,
      "infection": 3377,
      "tibility": 3378,
      "tization": 3379,
      "onation": 3380,
      "onents": 3381,
      "onyms": 3382,
      "inguistic": 3383,
      "reg": 3384,
      "rel": 3385,
      "Ġara": 3386,
      "Ġaward": 3387,
      "Ġaround": 3388,
      "Ġapi": 3389,
      "Ġaware": 3390,
      "Ġavoid": 3391,
      "ich": 3392,
      "icyc": 3393,
      "Ġsk": 3394,
      "Ġsor": 3395,
      "Ġsle": 3396,
      "Ġsus": 3397,
      "Ġsil": 3398,
      "Ġsni": 3399,
      "Ġstim": 3400,
      "Ġsite": 3401,
      "Ġsout": 3402,
      "Ġsome": 3403,
      "Ġsift": 3404,
      "Ġslides": 3405,
      "Ġsumm": 3406,
      "Ġpin": 3407,
      "Ġpan": 3408,
      "Ġpom": 3409,
      "Ġpos": 3410,
      "Ġpix": 3411,
      "Ġpages": 3412,
      "Ġpaper": 3413,
      "Ġpdf": 3414,
      "oral": 3415,
      "ords": 3416,
      "orient": 3417,
      "eng": 3418,
      "enh": 3419,
      "enes": 3420,
      "enom": 3421,
      "enger": 3422,
      "ern": 3423,
      "eras": 3424,
      "ertial": 3425,
      "Ġct": 3426,
      "Ġcle": 3427,
      "Ġcra": 3428,
      "Ġcos": 3429,
      "Ġcir": 3430,
      "Ġcanc": 3431,
      "Ġcasc": 3432,
      "arb": 3433,
      "arity": 3434,
      "arying": 3435,
      "arization": 3436,
      "array": 3437,
      "Ġfine": 3438,
      "Ġfall": 3439,
      "Ġfrac": 3440,
      "Ġfati": 3441,
      "Ġfav": 3442,
      "Ġfile": 3443,
      "Ġfault": 3444,
      "Ġfaults": 3445,
      "Ġfcc": 3446,
      "Ġfriend": 3447,
      "Ġfocus": 3448,
      "Ġtom": 3449,
      "Ġtur": 3450,
      "Ġtable": 3451,
      "Ġtest": 3452,
      "Ġtask": 3453,
      "Ġtables": 3454,
      "alk": 3455,
      "alistic": 3456,
      "Ġmr": 3457,
      "Ġmen": 3458,
      "Ġmer": 3459,
      "Ġmarch": 3460,
      "Ġmill": 3461,
      "Ġmake": 3462,
      "Ġmind": 3463,
      "Ġmuch": 3464,
      "Ġmdp": 3465,
      "Ġmitig": 3466,
      "Ġmoral": 3467,
      "Ġdre": 3468,
      "Ġdra": 3469,
      "Ġday": 3470,
      "Ġduration": 3471,
      "ley": 3472,
      "legi": 3473,
      "Ġopp": 3474,
      "Ġolfactor": 3475,
      "ationary": 3476,
      "ese": 3477,
      "ats": 3478,
      "ater": 3479,
      "asts": 3480,
      "asib": 3481,
      "asive": 3482,
      "rot": 3483,
      "roph": 3484,
      "anese": 3485,
      "itor": 3486,
      "itar": 3487,
      "Ġrequ": 3488,
      "Ġreality": 3489,
      "Ġreally": 3490,
      "Ġreference": 3491,
      "Ġindic": 3492,
      "Ġinertial": 3493,
      "Ġpred": 3494,
      "Ġprem": 3495,
      "Ġprecision": 3496,
      "Ġprevent": 3497,
      "sification": 3498,
      "siological": 3499,
      "ety": 3500,
      "etal": 3501,
      "eted": 3502,
      "Ġlesion": 3503,
      "Ġleaf": 3504,
      "Ġlesions": 3505,
      "Ġleuk": 3506,
      "Ġledger": 3507,
      "Ġanim": 3508,
      "Ġanten": 3509,
      "Ġanoth": 3510,
      "Ġbar": 3511,
      "Ġbur": 3512,
      "Ġbra": 3513,
      "Ġbig": 3514,
      "Ġbid": 3515,
      "Ġbow": 3516,
      "Ġbos": 3517,
      "Ġbud": 3518,
      "Ġbest": 3519,
      "Ġbran": 3520,
      "Ġbody": 3521,
      "Ġbrid": 3522,
      "Ġbatter": 3523,
      "Ġbicyc": 3524,
      "omposition": 3525,
      "Ġnod": 3526,
      "Ġnative": 3527,
      "Ġnational": 3528,
      "ecific": 3529,
      "economic": 3530,
      "eckers": 3531,
      "enter": 3532,
      "ental": 3533,
      "Ġford": 3534,
      "Ġforward": 3535,
      "Ġgr": 3536,
      "Ġgang": 3537,
      "Ġwar": 3538,
      "Ġwast": 3539,
      "Ġwhere": 3540,
      "Ġwild": 3541,
      "ise": 3542,
      "issance": 3543,
      "Ġclip": 3544,
      "Ġclub": 3545,
      "Ġclai": 3546,
      "hef": 3547,
      "heast": 3548,
      "Ġeach": 3549,
      "Ġelec": 3550,
      "Ġelection": 3551,
      "Ġebay": 3552,
      "Ġeffor": 3553,
      "Ġii": 3554,
      "Ġip": 3555,
      "Ġion": 3556,
      "Ġirish": 3557,
      "agraph": 3558,
      "aggregation": 3559,
      "Ġtour": 3560,
      "Ġtouch": 3561,
      "Ġtotal": 3562,
      "Ġtoken": 3563,
      "Ġstem": 3564,
      "Ġstory": 3565,
      "Ġstores": 3566,
      "Ġlith": 3567,
      "Ġlass": 3568,
      "Ġlayer": 3569,
      "Ġlhc": 3570,
      "Ġlda": 3571,
      "Ġlinguistic": 3572,
      "urity": 3573,
      "urations": 3574,
      "uristics": 3575,
      "rative": 3576,
      "rapping": 3577,
      "ratives": 3578,
      "Ġclassific": 3579,
      "ticip": 3580,
      "Ġtheory": 3581,
      "ste": 3582,
      "stone": 3583,
      "stationary": 3584,
      "Ġhip": 3585,
      "Ġhist": 3586,
      "Ġhome": 3587,
      "Ġhero": 3588,
      "Ġhours": 3589,
      "Ġrecid": 3590,
      "Ġrecover": 3591,
      "Ġvent": 3592,
      "Ġvot": 3593,
      "Ġvand": 3594,
      "Ġvill": 3595,
      "Ġveri": 3596,
      "ogs": 3597,
      "olute": 3598,
      "uld": 3599,
      "uli": 3600,
      "ceived": 3601,
      "rig": 3602,
      "rial": 3603,
      "rids": 3604,
      "rival": 3605,
      "rill": 3606,
      "ame": 3607,
      "ocy": 3608,
      "Ġimdb": 3609,
      "vere": 3610,
      "Ġsem": 3611,
      "Ġseason": 3612,
      "Ġsexual": 3613,
      "Ġwithin": 3614,
      "timate": 3615,
      "Ġprosp": 3616,
      "Ġproced": 3617,
      "Ġneed": 3618,
      "Ġnepal": 3619,
      "Ġautor": 3620,
      "Ġautore": 3621,
      "uctu": 3622,
      "world": 3623,
      "Ġconcep": 3624,
      "Ġconcent": 3625,
      "Ġexo": 3626,
      "Ġexit": 3627,
      "Ġexoplan": 3628,
      "vision": 3629,
      "Ġdepar": 3630,
      "forms": 3631,
      "Ġrat": 3632,
      "Ġrates": 3633,
      "Ġrnn": 3634,
      "Ġrhyth": 3635,
      "Ġrise": 3636,
      "emia": 3637,
      "Ġsports": 3638,
      "ching": 3639,
      "abling": 3640,
      "Ġchronic": 3641,
      "Ġcheckers": 3642,
      "Ġidentity": 3643,
      "ricted": 3644,
      "idney": 3645,
      "Ġmore": 3646,
      "Ġmost": 3647,
      "Ġdialog": 3648,
      "Ġdirich": 3649,
      "Ġautomating": 3650,
      "Ġunderv": 3651,
      "Ġactiv": 3652,
      "Ġaccoun": 3653,
      "resolution": 3654,
      "ressing": 3655,
      "Ġcompression": 3656,
      "Ġcompact": 3657,
      "Ġcompli": 3658,
      "Ġcomputing": 3659,
      "Ġcomponents": 3660,
      "epler": 3661,
      "ope": 3662,
      "Ġfeasib": 3663,
      "Ġdistor": 3664,
      "Ġdisorder": 3665,
      "Ġdisinfection": 3666,
      "Ġdisaggregation": 3667,
      "Ġrouting": 3668,
      "Ġrock": 3669,
      "Ġfove": 3670,
      "ouse": 3671,
      "Ġtrail": 3672,
      "Ġtrade": 3673,
      "Ġtraditional": 3674,
      "Ġexpos": 3675,
      "Ġexpress": 3676,
      "Ġkick": 3677,
      "Ġkidney": 3678,
      "Ġkepler": 3679,
      "iative": 3680,
      "Ġenabling": 3681,
      "Ġyout": 3682,
      "adc": 3683,
      "aders": 3684,
      "adata": 3685,
      "Ġimagined": 3686,
      "osc": 3687,
      "osal": 3688,
      "osting": 3689,
      "through": 3690,
      "Ġarc": 3691,
      "Ġarts": 3692,
      "Ġarrival": 3693,
      "apers": 3694,
      "apanese": 3695,
      "ello": 3696,
      "ellations": 3697,
      "Ġcontam": 3698,
      "Ġcontracts": 3699,
      "Ġplat": 3700,
      "Ġplace": 3701,
      "Ġquant": 3702,
      "Ġtherm": 3703,
      "Ġthree": 3704,
      "ands": 3705,
      "atics": 3706,
      "phal": 3707,
      "phones": 3708,
      "Ġads": 3709,
      "Ġaddress": 3710,
      "Ġgeneric": 3711,
      "Ġgenerate": 3712,
      "Ġmarkers": 3713,
      "Ġmultitask": 3714,
      "Ġmultitouch": 3715,
      "Ġatrial": 3716,
      "Ġtextures": 3717,
      "Ġintent": 3718,
      "Ġintra": 3719,
      "Ġimport": 3720,
      "Ġschem": 3721,
      "Ġscenes": 3722,
      "Ġbeam": 3723,
      "Ġbeaut": 3724,
      "Ġbeyond": 3725,
      "Ġemo": 3726,
      "Ġpoints": 3727,
      "ardiogram": 3728,
      "Ġroboc": 3729,
      "aks": 3730,
      "Ġship": 3731,
      "Ġshows": 3732,
      "ressional": 3733,
      "Ġfly": 3734,
      "Ġfloating": 3735,
      "Ġfluctu": 3736,
      "Ġoptimized": 3737,
      "Ġestimate": 3738,
      "fire": 3739,
      "fier": 3740,
      "fied": 3741,
      "field": 3742,
      "ource": 3743,
      "ube": 3744,
      "Ġmetric": 3745,
      "Ġmetadata": 3746,
      "Ġextent": 3747,
      "Ġextra": 3748,
      "Ġextending": 3749,
      "Ġperf": 3750,
      "Ġperceived": 3751,
      "Ġparts": 3752,
      "Ġparty": 3753,
      "Ġparagraph": 3754,
      "Ġcollected": 3755,
      "Ġmarketing": 3756,
      "Ġmathem": 3757,
      "Ġnewspaper": 3758,
      "artment": 3759,
      "Ġphras": 3760,
      "Ġphone": 3761,
      "Ġphishing": 3762,
      "Ġforecast": 3763,
      "tries": 3764,
      "Ġhear": 3765,
      "Ġhearth": 3766,
      "Ġheuristics": 3767,
      "Ġcharge": 3768,
      "Ġtransit": 3769,
      "Ġtransform": 3770,
      "Ġtransaction": 3771,
      "Ġtransfer": 3772,
      "Ġtransport": 3773,
      "Ġinterven": 3774,
      "Ġinterfac": 3775,
      "Ġinterference": 3776,
      "Ġinterpol": 3777,
      "Ġgenealog": 3778,
      "Ġeven": 3779,
      "Ġtextual": 3780,
      "Ġjets": 3781,
      "Ġjones": 3782,
      "Ġjazz": 3783,
      "Ġjapanese": 3784,
      "Ġwebpage": 3785,
      "Ġlocations": 3786,
      "Ġcharacters": 3787,
      "Ġlanguages": 3788,
      "Ġexplo": 3789,
      "Ġexplaining": 3790,
      "Ġbiomet": 3791,
      "Ġbiometric": 3792,
      "Ġdrive": 3793,
      "Ġdriven": 3794,
      "Ġgrading": 3795,
      "Ġwhite": 3796,
      "Ġwhose": 3797,
      "Ġwhich": 3798,
      "Ġdys": 3799,
      "cript": 3800,
      "Ġsimult": 3801,
      "encers": 3802,
      "hare": 3803,
      "Ġdescent": 3804,
      "Ġworth": 3805,
      "Ġworks": 3806,
      "Ġdifferences": 3807,
      "orealistic": 3808,
      "Ġdeceit": 3809,
      "Ġdecomposition": 3810,
      "Ġlike": 3811,
      "Ġlives": 3812,
      "Ġlibrary": 3813,
      "vention": 3814,
      "Ġorig": 3815,
      "Ġordering": 3816,
      "Ġrepair": 3817,
      "Ġrepeat": 3818,
      "Ġboosting": 3819,
      "ampling": 3820,
      "Ġstructures": 3821,
      "Ġrelated": 3822,
      "Ġdynamical": 3823,
      "Ġcorpus": 3824,
      "Ġindian": 3825,
      "Ġindust": 3826,
      "Ġindivi": 3827,
      "Ġabdom": 3828,
      "Ġabnor": 3829,
      "Ġfilms": 3830,
      "Ġamong": 3831,
      "Ġaudience": 3832,
      "Ġsubsp": 3833,
      "Ġtrack": 3834,
      "Ġdoor": 3835,
      "Ġdoors": 3836,
      "Ġlocalizing": 3837,
      "Ġspeeches": 3838,
      "Ġagents": 3839,
      "Ġsmall": 3840,
      "Ġpolyph": 3841,
      "ested": 3842,
      "Ġloop": 3843,
      "Ġloans": 3844,
      "Ġvarious": 3845,
      "Ġvariable": 3846,
      "azine": 3847,
      "Ġgrocery": 3848,
      "Ġgrowth": 3849,
      "Ġelectrom": 3850,
      "Ġelectroc": 3851,
      "Ġproductivity": 3852,
      "Ġsurf": 3853,
      "Ġsolo": 3854,
      "Ġsolver": 3855,
      "Ġmonte": 3856,
      "Ġmontage": 3857,
      "Ġmonocular": 3858,
      "Ġgaug": 3859,
      "Ġgaits": 3860,
      "Ġstyl": 3861,
      "Ġstyles": 3862,
      "Ġvisualizing": 3863,
      "Ġprocessor": 3864,
      "Ġkeyboard": 3865,
      "Ġengagement": 3866,
      "Ġsimulations": 3867,
      "Ġsemantics": 3868,
      "alued": 3869,
      "Ġinvest": 3870,
      "Ġinvasive": 3871,
      "Ġbetting": 3872,
      "hemeral": 3873,
      "Ġdepend": 3874,
      "Ġdepartment": 3875,
      "Ġplanet": 3876,
      "Ġtranscriptional": 3877,
      "Ġsmartphones": 3878,
      "naissance": 3879,
      "Ġ20": 3880,
      "Ġ200": 3881,
      "Ġclassifiers": 3882,
      "Ġreconstructing": 3883,
      "Ġphotograph": 3884,
      "Ġphotorealistic": 3885,
      "egas": 3886,
      "Ġmatches": 3887,
      "clustering": 3888,
      "Ġcars": 3889,
      "Ġcarlo": 3890,
      "Ġcarcinoma": 3891,
      "Ġcards": 3892,
      "Ġmany": 3893,
      "Ġmanifol": 3894,
      "Ġmeasures": 3895,
      "Ġmicroscopy": 3896,
      "Ġmicroarray": 3897,
      "Ġrelease": 3898,
      "Ġreleases": 3899,
      "Ġblack": 3900,
      "Ġrecords": 3901,
      "Ġmobility": 3902,
      "Ġpathological": 3903,
      "Ġpathology": 3904,
      "Ġpathogen": 3905,
      "ographics": 3906,
      "mias": 3907,
      "specific": 3908,
      "Ġtit": 3909,
      "Ġmean": 3910,
      "Ġmeets": 3911,
      "Ġlearner": 3912,
      "Ġseparating": 3913,
      "Ġprogression": 3914,
      "scatter": 3915,
      "scope": 3916,
      "Ġsoil": 3917,
      "Ġcalor": 3918,
      "Ġdrum": 3919,
      "Ġincenti": 3920,
      "Ġdetermination": 3921,
      "Ġproteins": 3922,
      "Ġdemographics": 3923,
      "Ġsyntac": 3924,
      "Ġartists": 3925,
      "Ġquantitative": 3926,
      "place": 3927,
      "plane": 3928,
      "ranking": 3929,
      "ymph": 3930,
      "Ġedge": 3931,
      "Ġedits": 3932,
      "Ġpatient": 3933,
      "Ġdigit": 3934,
      "Ġdigits": 3935,
      "aneous": 3936,
      "Ġinstability": 3937,
      "Ġvox": 3938,
      "Ġvoting": 3939,
      "Ġcommunity": 3940,
      "Ġportra": 3941,
      "Ġcrisis": 3942,
      "ropy": 3943,
      "Ġoffline": 3944,
      "Ġformat": 3945,
      "Ġeffective": 3946,
      "Ġpropagation": 3947,
      "Ġproposal": 3948,
      "Ġforest": 3949,
      "Ġforeground": 3950,
      "Ġenhancer": 3951,
      "Ġenhancing": 3952,
      "Ġflows": 3953,
      "predic": 3954,
      "surgery": 3955,
      "Ġtumour": 3956,
      "Ġdense": 3957,
      "Ġusefulness": 3958,
      "Ġlogic": 3959,
      "Ġvalidity": 3960,
      "Ġcomposite": 3961,
      "Ġenvironment": 3962,
      "Ġembry": 3963,
      "Ġgraphs": 3964,
      "Ġgraphics": 3965,
      "Ġgrouping": 3966,
      "Ġgroupings": 3967,
      "Ġprogramming": 3968,
      "Ġprogrammable": 3969,
      "obal": 3970,
      "Ġsources": 3971,
      "Ġcrf": 3972,
      "Ġcrude": 3973,
      "Ġcapital": 3974,
      "Ġminecraft": 3975,
      "Ġoverflow": 3976,
      "Ġgpus": 3977,
      "Ġguide": 3978,
      "Ġguitar": 3979,
      "Ġstacked": 3980,
      "ceptibility": 3981,
      "Ġspecies": 3982,
      "Ġspectra": 3983,
      "Ġspectrum": 3984,
      "Ġdiabetic": 3985,
      "Ġensembling": 3986,
      "Ġcountries": 3987,
      "Ġengineering": 3988,
      "Ġhierarchy": 3989,
      "Ġcategory": 3990,
      "Ġcategories": 3991,
      "facial": 3992,
      "ivism": 3993,
      "Ġ100": 3994,
      "Ġcourse": 3995,
      "Ġcampus": 3996,
      "Ġfire": 3997,
      "Ġfiles": 3998,
      "Ġmakes": 3999,
      "Ġanswer": 4000,
      "Ġnotation": 4001,
      "Ġclouds": 4002,
      "Ġephemeral": 4003,
      "Ġstarcraft": 4004,
      "Ġhistorical": 4005,
      "Ġseizures": 4006,
      "Ġconfusion": 4007,
      "Ġmolecules": 4008,
      "Ġroadmap": 4009,
      "Ġtrajectory": 4010,
      "Ġcontextual": 4011,
      "Ġobservable": 4012,
      "Ġfactorization": 4013,
      "Ġretinopathy": 4014,
      "Ġmlb": 4015,
      "Ġothello": 4016,
      "Ġglobal": 4017,
      "Ġequity": 4018,
      "Ġstreaming": 4019,
      "Ġhybrid": 4020,
      "Ġhardware": 4021,
      "Ġneutral": 4022,
      "Ġcongressional": 4023,
      "Ġdiscour": 4024,
      "Ġdistance": 4025,
      "Ġdistraction": 4026,
      "Ġarrhythmias": 4027,
      "Ġheads": 4028,
      "Ġinterpreting": 4029,
      "Ġinterpreter": 4030,
      "Ġspeakers": 4031,
      "Ġdescriptions": 4032,
      "Ġstrategic": 4033,
      "Ġteams": 4034,
      "Ġmechanical": 4035,
      "Ġmechanics": 4036,
      "Ġmechanism": 4037,
      "type": 4038,
      "tility": 4039,
      "reads": 4040,
      "Ġfreeway": 4041,
      "Ġmagazine": 4042,
      "Ġmaps": 4043,
      "Ġrental": 4044,
      "Ġinputs": 4045,
      "Ġholdem": 4046,
      "Ġseekers": 4047,
      "Ġuncertain": 4048,
      "Ġartwork": 4049,
      "Ġarrays": 4050,
      "Ġpositional": 4051,
      "Ġshould": 4052,
      "Ġregulate": 4053,
      "Ġphysiological": 4054,
      "Ġinteractive": 4055,
      "Ġworld": 4056,
      "Ġcardiomy": 4057,
      "Ġautoencoder": 4058,
      "Ġsynthesizing": 4059,
      "Ġcampaigns": 4060,
      "Ġaffective": 4061,
      "Ġsections": 4062,
      "Ġsafe": 4063,
      "Ġsafety": 4064,
      "Ġpickups": 4065,
      "Ġcnns": 4066,
      "Ġtrial": 4067,
      "Ġtrials": 4068,
      "Ġrevenues": 4069,
      "Ġinferring": 4070,
      "Ġincome": 4071,
      "Ġinfluencers": 4072,
      "Ġclasses": 4073,
      "hereum": 4074,
      "Ġelev": 4075,
      "Ġtools": 4076,
      "Ġlisting": 4077,
      "Ġlstms": 4078,
      "Ġlabel": 4079,
      "Ġlandmark": 4080,
      "Ġlandslides": 4081,
      "Ġlensing": 4082,
      "Ġlenses": 4083,
      "Ġneuron": 4084,
      "Ġchromatin": 4085,
      "Ġtechnical": 4086,
      "Ġgradient": 4087,
      "Ġteacher": 4088,
      "Ġprivacy": 4089,
      "Ġeducational": 4090,
      "Ġconfigurations": 4091,
      "Ġfingerprints": 4092,
      "peer": 4093,
      "Ġrainfall": 4094,
      "Ġafter": 4095,
      "Ġslam": 4096,
      "Ġslide": 4097,
      "Ġsheet": 4098,
      "Ġpacman": 4099,
      "Ġpurch": 4100,
      "Ġpromotion": 4101,
      "Ġpassenger": 4102,
      "Ġpitchers": 4103,
      "Ġcrowd": 4104,
      "Ġcurric": 4105,
      "Ġfull": 4106,
      "Ġfully": 4107,
      "Ġfailure": 4108,
      "Ġfailures": 4109,
      "Ġfibrill": 4110,
      "Ġtactical": 4111,
      "Ġmissing": 4112,
      "Ġderiv": 4113,
      "Ġpresence": 4114,
      "Ġbroadc": 4115,
      "Ġnano": 4116,
      "Ġgetting": 4117,
      "Ġwaveform": 4118,
      "Ġsteam": 4119,
      "Ġsteering": 4120,
      "Ġimmune": 4121,
      "Ġconnect": 4122,
      "Ġconversation": 4123,
      "Ġconversational": 4124,
      "Ġconditioning": 4125,
      "Ġspotting": 4126,
      "chasing": 4127,
      "Ġcompetitive": 4128,
      "Ġcompetitor": 4129,
      "Ġtrainer": 4130,
      "Ġexpected": 4131,
      "Ġexpectancy": 4132,
      "Ġcollision": 4133,
      "Ġcollapse": 4134,
      "Ġregularized": 4135,
      "Ġsignatures": 4136,
      "Ġabsolute": 4137,
      "Ġinvariant": 4138,
      "Ġrecorded": 4139,
      "Ġcalibration": 4140,
      "Ġhyperparamet": 4141,
      "Ġlikely": 4142,
      "Ġlikelihood": 4143,
      "Ġultrasonic": 4144,
      "Ġultrasound": 4145,
      "Ġemploy": 4146,
      "Ġemploye": 4147,
      "Ġparallelizing": 4148,
      "collegi": 4149,
      "limit": 4150,
      "machines": 4151,
      "pectral": 4152,
      "temporal": 4153,
      "Ġurl": 4154,
      "Ġastronom": 4155,
      "Ġaverage": 4156,
      "Ġppg": 4157,
      "Ġporous": 4158,
      "Ġparking": 4159,
      "Ġcataly": 4160,
      "Ġcrystal": 4161,
      "Ġmario": 4162,
      "Ġdropout": 4163,
      "Ġodds": 4164,
      "analysis": 4165,
      "Ġreading": 4166,
      "Ġinverse": 4167,
      "Ġpressure": 4168,
      "Ġpremier": 4169,
      "Ġlecture": 4170,
      "Ġancient": 4171,
      "Ġbenign": 4172,
      "Ġbubble": 4173,
      "Ġnorth": 4174,
      "Ġnarratives": 4175,
      "Ġnaive": 4176,
      "Ġwritten": 4177,
      "Ġclimbing": 4178,
      "Ġdatabase": 4179,
      "Ġproximity": 4180,
      "Ġconstraints": 4181,
      "Ġdeformable": 4182,
      "Ġsplice": 4183,
      "Ġdisasters": 4184,
      "Ġexperts": 4185,
      "Ġarbitrage": 4186,
      "Ġquarterback": 4187,
      "Ġobstacles": 4188,
      "seeking": 4189,
      "Ġemergency": 4190,
      "Ġphenotypes": 4191,
      "Ġwebcams": 4192,
      "Ġbiomarkers": 4193,
      "Ġgrammatical": 4194,
      "Ġgravitational": 4195,
      "Ġcorrect": 4196,
      "Ġcorrespond": 4197,
      "Ġassigning": 4198,
      "Ġsubtypes": 4199,
      "Ġcomputationally": 4200,
      "Ġradio": 4201,
      "Ġmanipulate": 4202,
      "Ġbreaking": 4203,
      "speed": 4204,
      "Ġprimate": 4205,
      "Ġvalidating": 4206,
      "Ġcaptchas": 4207,
      "Ġguided": 4208,
      "Ġhyperspectral": 4209,
      "Ġfragment": 4210,
      "Ġepileptic": 4211,
      "Ġanomalies": 4212,
      "Ġdiscussion": 4213,
      "Ġcorrelations": 4214,
      "Ġneuroimaging": 4215,
      "Ġcalligraphy": 4216,
      "Ġinnovation": 4217,
      "Ġkeypoint": 4218,
      "Ġaugmented": 4219,
      "Ġaesthetic": 4220,
      "Ġpeptides": 4221,
      "Ġfamily": 4222,
      "Ġhospital": 4223,
      "Ġheterogeneous": 4224,
      "Ġempirical": 4225,
      "culating": 4226,
      "dynam": 4227,
      "decision": 4228,
      "missions": 4229,
      "modal": 4230,
      "uzzy": 4231,
      "Ġethereum": 4232,
      "Ġultimate": 4233,
      "Ġarabic": 4234,
      "Ġavoidance": 4235,
      "Ġsorting": 4236,
      "Ġsleep": 4237,
      "Ġsusceptibility": 4238,
      "Ġsilic": 4239,
      "Ġsnipp": 4240,
      "Ġstimuli": 4241,
      "Ġsoutheast": 4242,
      "Ġpanels": 4243,
      "Ġpomdp": 4244,
      "Ġpixel": 4245,
      "oriented": 4246,
      "Ġclean": 4247,
      "Ġcosm": 4248,
      "Ġfatigue": 4249,
      "Ġfavor": 4250,
      "Ġmillion": 4251,
      "Ġopponent": 4252,
      "Ġolfactory": 4253,
      "Ġleukemia": 4254,
      "Ġantenna": 4255,
      "Ġanother": 4256,
      "Ġbrazil": 4257,
      "Ġboson": 4258,
      "Ġbridge": 4259,
      "Ġbicycle": 4260,
      "Ġganglion": 4261,
      "Ġwaste": 4262,
      "Ġclips": 4263,
      "Ġclaims": 4264,
      "Ġelections": 4265,
      "Ġlithium": 4266,
      "Ġlasso": 4267,
      "Ġhistograms": 4268,
      "Ġrecidivism": 4269,
      "Ġvotes": 4270,
      "Ġvandal": 4271,
      "Ġvillages": 4272,
      "Ġautoregressive": 4273,
      "Ġexoplanets": 4274,
      "Ġdialogue": 4275,
      "Ġdirichlet": 4276,
      "Ġundervalued": 4277,
      "Ġactivation": 4278,
      "Ġaccounts": 4279,
      "Ġfeasibility": 4280,
      "Ġyoutube": 4281,
      "throughput": 4282,
      "Ġquantum": 4283,
      "Ġthermal": 4284,
      "Ġschemes": 4285,
      "Ġbeauty": 4286,
      "Ġmathematical": 4287,
      "Ġphrases": 4288,
      "Ġhearthstone": 4289,
      "Ġinterventions": 4290,
      "Ġinterfaces": 4291,
      "Ġgenealogical": 4292,
      "Ġbiometrics": 4293,
      "Ġsimultaneous": 4294,
      "Ġindustry": 4295,
      "Ġindividual": 4296,
      "Ġabdominal": 4297,
      "Ġsubspace": 4298,
      "Ġpolyphonic": 4299,
      "Ġelectrocardiogram": 4300,
      "Ġphotographs": 4301,
      "Ġmanifolds": 4302,
      "Ġpathogenic": 4303,
      "Ġsyntactic": 4304,
      "Ġfibrillation": 4305,
      "collegiate": 4306,
      "Ġastronomical": 4307,
      "'Â": 4308,
      "'ÂĢÂĻ": 4309,
      "++": 4310,
      "06": 4311,
      "106": 4312,
      "21": 4313,
      "29": 4314,
      "32": 4315,
      "300": 4316,
      "48": 4317,
      "532": 4318,
      "64": 4319,
      "82": 4320,
      "?\":": 4321,
      "ae": 4322,
      "au": 4323,
      "ament": 4324,
      "aul": 4325,
      "avi": 4326,
      "aim": 4327,
      "aving": 4328,
      "aotic": 4329,
      "ause": 4330,
      "bh": 4331,
      "bp": 4332,
      "bu": 4333,
      "bti": 4334,
      "bal": 4335,
      "bec": 4336,
      "bel": 4337,
      "bol": 4338,
      "bul": 4339,
      "bum": 4340,
      "bow": 4341,
      "bial": 4342,
      "band": 4343,
      "bies": 4344,
      "bax": 4345,
      "bates": 4346,
      "bores": 4347,
      "bof": 4348,
      "body": 4349,
      "bination": 4350,
      "bats": 4351,
      "brig": 4352,
      "cf": 4353,
      "cm": 4354,
      "ct": 4355,
      "con": 4356,
      "cre": 4357,
      "car": 4358,
      "cal": 4359,
      "cle": 4360,
      "cat": 4361,
      "cro": 4362,
      "can": 4363,
      "call": 4364,
      "crac": 4365,
      "cip": 4366,
      "cence": 4367,
      "cancer": 4368,
      "chem": 4369,
      "cending": 4370,
      "crop": 4371,
      "cket": 4372,
      "copter": 4373,
      "cranial": 4374,
      "cium": 4375,
      "cryst": 4376,
      "cont": 4377,
      "citation": 4378,
      "chef": 4379,
      "dh": 4380,
      "do": 4381,
      "dr": 4382,
      "din": 4383,
      "das": 4384,
      "dent": 4385,
      "del": 4386,
      "dis": 4387,
      "drom": 4388,
      "day": 4389,
      "dated": 4390,
      "dim": 4391,
      "dna": 4392,
      "dates": 4393,
      "door": 4394,
      "dnet": 4395,
      "density": 4396,
      "duce": 4397,
      "eal": 4398,
      "ees": 4399,
      "eating": 4400,
      "eres": 4401,
      "erec": 4402,
      "eens": 4403,
      "elect": 4404,
      "eeg": 4405,
      "earth": 4406,
      "eive": 4407,
      "eury": 4408,
      "fd": 4409,
      "fing": 4410,
      "fus": 4411,
      "fting": 4412,
      "fur": 4413,
      "from": 4414,
      "fock": 4415,
      "fare": 4416,
      "flection": 4417,
      "fish": 4418,
      "free": 4419,
      "faction": 4420,
      "fmri": 4421,
      "frisk": 4422,
      "fcc": 4423,
      "friend": 4424,
      "focus": 4425,
      "ferring": 4426,
      "fuzzy": 4427,
      "gl": 4428,
      "gen": 4429,
      "gal": 4430,
      "gas": 4431,
      "ged": 4432,
      "gent": 4433,
      "gni": 4434,
      "gate": 4435,
      "gous": 4436,
      "gap": 4437,
      "gans": 4438,
      "gles": 4439,
      "geries": 4440,
      "gree": 4441,
      "gene": 4442,
      "gram": 4443,
      "galax": 4444,
      "gamm": 4445,
      "geting": 4446,
      "grids": 4447,
      "gressing": 4448,
      "gae": 4449,
      "hj": 4450,
      "hr": 4451,
      "hing": 4452,
      "her": 4453,
      "hal": 4454,
      "hes": 4455,
      "hom": 4456,
      "hol": 4457,
      "ham": 4458,
      "hum": 4459,
      "hop": 4460,
      "hard": 4461,
      "hension": 4462,
      "hannel": 4463,
      "hmm": 4464,
      "hound": 4465,
      "hinal": 4466,
      "ition": 4467,
      "ien": 4468,
      "ier": 4469,
      "idic": 4470,
      "ied": 4471,
      "iec": 4472,
      "iel": 4473,
      "ification": 4474,
      "iod": 4475,
      "iqu": 4476,
      "iding": 4477,
      "identi": 4478,
      "iate": 4479,
      "iver": 4480,
      "ios": 4481,
      "iated": 4482,
      "iations": 4483,
      "ivel": 4484,
      "ival": 4485,
      "iere": 4486,
      "isition": 4487,
      "ired": 4488,
      "ikes": 4489,
      "itization": 4490,
      "ietal": 4491,
      "jia": 4492,
      "joint": 4493,
      "jective": 4494,
      "jury": 4495,
      "jazz": 4496,
      "ki": 4497,
      "ky": 4498,
      "kas": 4499,
      "kit": 4500,
      "kop": 4501,
      "kary": 4502,
      "kton": 4503,
      "lp": 4504,
      "lar": 4505,
      "lle": 4506,
      "lac": 4507,
      "lis": 4508,
      "lassi": 4509,
      "log": 4510,
      "lying": 4511,
      "lating": 4512,
      "lay": 4513,
      "lution": 4514,
      "lable": 4515,
      "llab": 4516,
      "lick": 4517,
      "lustering": 4518,
      "lights": 4519,
      "lbar": 4520,
      "lords": 4521,
      "lfriend": 4522,
      "mf": 4523,
      "mo": 4524,
      "mp": 4525,
      "mat": 4526,
      "mog": 4527,
      "mot": 4528,
      "mand": 4529,
      "mality": 4530,
      "mics": 4531,
      "max": 4532,
      "mind": 4533,
      "morph": 4534,
      "marg": 4535,
      "mouse": 4536,
      "mbol": 4537,
      "nt": 4538,
      "ntion": 4539,
      "nment": 4540,
      "not": 4541,
      "ners": 4542,
      "num": 4543,
      "nch": 4544,
      "nss": 4545,
      "nba": 4546,
      "national": 4547,
      "nosis": 4548,
      "nology": 4549,
      "nym": 4550,
      "nosing": 4551,
      "nography": 4552,
      "nlp": 4553,
      "oin": 4554,
      "oon": 4555,
      "ost": 4556,
      "oter": 4557,
      "oun": 4558,
      "oia": 4559,
      "off": 4560,
      "oose": 4561,
      "oof": 4562,
      "oints": 4563,
      "oarth": 4564,
      "oflow": 4565,
      "osted": 4566,
      "ption": 4567,
      "pation": 4568,
      "pan": 4569,
      "phe": 4570,
      "psis": 4571,
      "pric": 4572,
      "ptive": 4573,
      "pell": 4574,
      "pari": 4575,
      "pass": 4576,
      "pain": 4577,
      "pose": 4578,
      "path": 4579,
      "prop": 4580,
      "power": 4581,
      "press": 4582,
      "psy": 4583,
      "papers": 4584,
      "qin": 4585,
      "rd": 4586,
      "rl": 4587,
      "rm": 4588,
      "rus": 4589,
      "rate": 4590,
      "rations": 4591,
      "rite": 4592,
      "rty": 4593,
      "rator": 4594,
      "range": 4595,
      "ruff": 4596,
      "rrl": 4597,
      "sf": 4598,
      "son": 4599,
      "sic": 4600,
      "ser": 4601,
      "sers": 4602,
      "sell": 4603,
      "sub": 4604,
      "sund": 4605,
      "scription": 4606,
      "ship": 4607,
      "sites": 4608,
      "sentence": 4609,
      "slist": 4610,
      "soph": 4611,
      "source": 4612,
      "share": 4613,
      "sampling": 4614,
      "tg": 4615,
      "tt": 4616,
      "tz": 4617,
      "tra": 4618,
      "tum": 4619,
      "tate": 4620,
      "tex": 4621,
      "tap": 4622,
      "tang": 4623,
      "tack": 4624,
      "tail": 4625,
      "tron": 4626,
      "tals": 4627,
      "tten": 4628,
      "try": 4629,
      "tology": 4630,
      "turb": 4631,
      "tection": 4632,
      "traction": 4633,
      "tometry": 4634,
      "tml": 4635,
      "tdb": 4636,
      "tune": 4637,
      "toplan": 4638,
      "tanalysis": 4639,
      "uon": 4640,
      "uer": 4641,
      "ule": 4642,
      "ued": 4643,
      "uis": 4644,
      "uum": 4645,
      "uate": 4646,
      "uess": 4647,
      "uated": 4648,
      "uffic": 4649,
      "uitable": 4650,
      "uition": 4651,
      "vas": 4652,
      "vis": 4653,
      "vine": 4654,
      "vol": 4655,
      "vity": 4656,
      "vant": 4657,
      "vace": 4658,
      "visual": 4659,
      "voir": 4660,
      "voice": 4661,
      "vcs": 4662,
      "varying": 4663,
      "vmf": 4664,
      "wer": 4665,
      "war": 4666,
      "with": 4667,
      "wop": 4668,
      "web": 4669,
      "wds": 4670,
      "wide": 4671,
      "wals": 4672,
      "west": 4673,
      "waves": 4674,
      "water": 4675,
      "wrapping": 4676,
      "xo": 4677,
      "xis": 4678,
      "xies": 4679,
      "xÃ¢": 4680,
      "xib": 4681,
      "yes": 4682,
      "yrom": 4683,
      "yling": 4684,
      "ycl": 4685,
      "ylation": 4686,
      "yography": 4687,
      "ysti": 4688,
      "ylos": 4689,
      "yfish": 4690,
      "ytoplan": 4691,
      "za": 4692,
      "zan": 4693,
      "zero": 4694,
      "zza": 4695,
      "ÂĪ": 4696,
      "Ã¬": 4697,
      "Ġ/": 4698,
      "Ġ;": 4699,
      "Ġing": 4700,
      "Ġrom": 4701,
      "Ġell": 4702,
      "Ġice": 4703,
      "ĠÂĢÂ": 4704,
      "Ġupp": 4705,
      "ĠĠĊ": 4706,
      "Ġera": 4707,
      "Ġ500": 4708,
      "Ġeras": 4709,
      "Ġ532": 4710,
      "Ġ64": 4711,
      "ini": 4712,
      "inis": 4713,
      "inst": 4714,
      "inter": 4715,
      "inform": 4716,
      "inant": 4717,
      "inary": 4718,
      "inery": 4719,
      "inals": 4720,
      "inator": 4721,
      "infer": 4722,
      "invari": 4723,
      "inney": 4724,
      "initial": 4725,
      "insical": 4726,
      "inavi": 4727,
      "inson": 4728,
      "tis": 4729,
      "tire": 4730,
      "tier": 4731,
      "tile": 4732,
      "tification": 4733,
      "tifying": 4734,
      "tise": 4735,
      "titut": 4736,
      "ona": 4737,
      "onat": 4738,
      "onst": 4739,
      "onem": 4740,
      "onia": 4741,
      "onization": 4742,
      "onduc": 4743,
      "onds": 4744,
      "onge": 4745,
      "onfl": 4746,
      "onest": 4747,
      "ondri": 4748,
      "onsist": 4749,
      "ingual": 4750,
      "rech": 4751,
      "reme": 4752,
      "redi": 4753,
      "rease": 4754,
      "reference": 4755,
      "resist": 4756,
      "reduction": 4757,
      "renia": 4758,
      "reactive": 4759,
      "retization": 4760,
      "reenh": 4761,
      "reats": 4762,
      "rehension": 4763,
      "remot": 4764,
      "rett": 4765,
      "Ġaor": 4766,
      "Ġaer": 4767,
      "Ġaes": 4768,
      "Ġasi": 4769,
      "Ġari": 4770,
      "Ġaqu": 4771,
      "Ġauc": 4772,
      "Ġavi": 4773,
      "Ġach": 4774,
      "Ġath": 4775,
      "Ġaort": 4776,
      "Ġage": 4777,
      "Ġaval": 4778,
      "Ġasian": 4779,
      "Ġapt": 4780,
      "Ġaki": 4781,
      "Ġaxis": 4782,
      "tioning": 4783,
      "tional": 4784,
      "ica": 4785,
      "ict": 4786,
      "iction": 4787,
      "icol": 4788,
      "icul": 4789,
      "ictim": 4790,
      "icip": 4791,
      "icard": 4792,
      "icability": 4793,
      "icror": 4794,
      "Ġsf": 4795,
      "Ġsure": 4796,
      "Ġsig": 4797,
      "Ġsect": 4798,
      "Ġsend": 4799,
      "Ġsms": 4800,
      "Ġsanc": 4801,
      "Ġsand": 4802,
      "Ġsail": 4803,
      "Ġside": 4804,
      "Ġsati": 4805,
      "Ġsolution": 4806,
      "Ġsund": 4807,
      "Ġsizing": 4808,
      "Ġsaying": 4809,
      "Ġsnow": 4810,
      "Ġsatis": 4811,
      "Ġsave": 4812,
      "Ġslid": 4813,
      "Ġslow": 4814,
      "Ġsdp": 4815,
      "Ġsket": 4816,
      "Ġsaw": 4817,
      "Ġsize": 4818,
      "Ġsacc": 4819,
      "Ġsame": 4820,
      "Ġsaving": 4821,
      "Ġsuitable": 4822,
      "Ġpc": 4823,
      "Ġpv": 4824,
      "Ġpen": 4825,
      "Ġpal": 4826,
      "Ġple": 4827,
      "Ġpas": 4828,
      "Ġpet": 4829,
      "Ġpent": 4830,
      "Ġput": 4831,
      "Ġpam": 4832,
      "Ġpage": 4833,
      "Ġpay": 4834,
      "Ġprac": 4835,
      "Ġpia": 4836,
      "Ġpad": 4837,
      "Ġpse": 4838,
      "Ġpack": 4839,
      "Ġpace": 4840,
      "Ġpunc": 4841,
      "Ġpile": 4842,
      "Ġpne": 4843,
      "Ġpapers": 4844,
      "Ġpegas": 4845,
      "Ġpiec": 4846,
      "Ġprm": 4847,
      "Ġpylos": 4848,
      "org": 4849,
      "orro": 4850,
      "ority": 4851,
      "ording": 4852,
      "oriz": 4853,
      "orms": 4854,
      "orization": 4855,
      "orange": 4856,
      "orale": 4857,
      "ordering": 4858,
      "orosc": 4859,
      "orhinal": 4860,
      "oritization": 4861,
      "orption": 4862,
      "enon": 4863,
      "ening": 4864,
      "ention": 4865,
      "enet": 4866,
      "enoc": 4867,
      "enue": 4868,
      "enital": 4869,
      "enface": 4870,
      "environ": 4871,
      "enfer": 4872,
      "ength": 4873,
      "ensitivity": 4874,
      "eration": 4875,
      "erdic": 4876,
      "erical": 4877,
      "erap": 4878,
      "erated": 4879,
      "erative": 4880,
      "erant": 4881,
      "erary": 4882,
      "erry": 4883,
      "Ġcas": 4884,
      "Ġcit": 4885,
      "Ġche": 4886,
      "Ġcod": 4887,
      "Ġcul": 4888,
      "Ġcoc": 4889,
      "Ġcage": 4890,
      "Ġcab": 4891,
      "Ġcess": 4892,
      "Ġcrac": 4893,
      "Ġcock": 4894,
      "Ġcft": 4895,
      "Ġcals": 4896,
      "Ġcrop": 4897,
      "Ġcities": 4898,
      "Ġcave": 4899,
      "Ġciv": 4900,
      "Ġcyc": 4901,
      "Ġcues": 4902,
      "Ġcuration": 4903,
      "Ġcopter": 4904,
      "Ġcases": 4905,
      "Ġccd": 4906,
      "Ġcuff": 4907,
      "Ġcows": 4908,
      "Ġcrack": 4909,
      "Ġcnx": 4910,
      "Ġcenter": 4911,
      "Ġcct": 4912,
      "Ġcfd": 4913,
      "Ġcuis": 4914,
      "artic": 4915,
      "arith": 4916,
      "arri": 4917,
      "arding": 4918,
      "Ġfle": 4919,
      "Ġfit": 4920,
      "Ġfur": 4921,
      "Ġfric": 4922,
      "Ġfid": 4923,
      "Ġfir": 4924,
      "Ġfund": 4925,
      "Ġfron": 4926,
      "Ġfix": 4927,
      "Ġfish": 4928,
      "Ġfung": 4929,
      "Ġfishing": 4930,
      "Ġfighting": 4931,
      "Ġfont": 4932,
      "Ġfarms": 4933,
      "Ġfash": 4934,
      "Ġfuzzy": 4935,
      "Ġfiction": 4936,
      "Ġtb": 4937,
      "Ġtd": 4938,
      "Ġtf": 4939,
      "Ġtes": 4940,
      "Ġtas": 4941,
      "Ġtan": 4942,
      "Ġtel": 4943,
      "Ġtach": 4944,
      "Ġtut": 4945,
      "Ġtun": 4946,
      "Ġtric": 4947,
      "Ġtap": 4948,
      "Ġtang": 4949,
      "Ġtens": 4950,
      "Ġtast": 4951,
      "Ġtrol": 4952,
      "Ġtenc": 4953,
      "Ġtrop": 4954,
      "Ġtls": 4955,
      "Ġtbi": 4956,
      "Ġtrot": 4957,
      "Ġtau": 4958,
      "Ġtcf": 4959,
      "aling": 4960,
      "alect": 4961,
      "align": 4962,
      "alization": 4963,
      "alties": 4964,
      "alian": 4965,
      "alignment": 4966,
      "alancing": 4967,
      "Ġmit": 4968,
      "Ġmun": 4969,
      "Ġmid": 4970,
      "Ġmay": 4971,
      "Ġmell": 4972,
      "Ġmir": 4973,
      "Ġmud": 4974,
      "Ġmock": 4975,
      "Ġmart": 4976,
      "Ġmast": 4977,
      "Ġmail": 4978,
      "Ġmice": 4979,
      "Ġmines": 4980,
      "Ġmaz": 4981,
      "Ġmeg": 4982,
      "Ġmarg": 4983,
      "Ġmris": 4984,
      "Ġmta": 4985,
      "Ġmild": 4986,
      "Ġmck": 4987,
      "Ġmhc": 4988,
      "Ġmma": 4989,
      "Ġmuff": 4990,
      "Ġmental": 4991,
      "Ġmbti": 4992,
      "Ġmfcc": 4993,
      "Ġmtg": 4994,
      "Ġmicror": 4995,
      "Ġdro": 4996,
      "Ġdsi": 4997,
      "Ġdom": 4998,
      "Ġdut": 4999,
      "Ġdur": 5000,
      "Ġdol": 5001,
      "Ġduc": 5002,
      "Ġdend": 5003,
      "Ġdock": 5004,
      "Ġdens": 5005,
      "Ġdual": 5006,
      "Ġdrough": 5007,
      "Ġdining": 5008,
      "Ġdue": 5009,
      "Ġdors": 5010,
      "Ġderm": 5011,
      "Ġdnn": 5012,
      "Ġdsp": 5013,
      "Ġdump": 5014,
      "Ġddp": 5015,
      "Ġdumm": 5016,
      "Ġdnase": 5017,
      "Ġdental": 5018,
      "Ġddr": 5019,
      "Ġdjia": 5020,
      "leb": 5021,
      "leum": 5022,
      "lets": 5023,
      "less": 5024,
      "lete": 5025,
      "lepsy": 5026,
      "Ġos": 5027,
      "Ġold": 5028,
      "Ġown": 5029,
      "Ġoste": 5030,
      "Ġomics": 5031,
      "essi": 5032,
      "ester": 5033,
      "ests": 5034,
      "estions": 5035,
      "essian": 5036,
      "espe": 5037,
      "espan": 5038,
      "atation": 5039,
      "athe": 5040,
      "attering": 5041,
      "atological": 5042,
      "ateral": 5043,
      "atbot": 5044,
      "atoes": 5045,
      "atoin": 5046,
      "attack": 5047,
      "using": 5048,
      "uscrip": 5049,
      "asa": 5050,
      "asht": 5051,
      "ascript": 5052,
      "roach": 5053,
      "rosis": 5054,
      "roid": 5055,
      "rover": 5056,
      "road": 5057,
      "rotor": 5058,
      "roduc": 5059,
      "roence": 5060,
      "robot": 5061,
      "roscopy": 5062,
      "rofo": 5063,
      "roeconomic": 5064,
      "roscope": 5065,
      "roduce": 5066,
      "rogate": 5067,
      "roleum": 5068,
      "ana": 5069,
      "anic": 5070,
      "anation": 5071,
      "antic": 5072,
      "anations": 5073,
      "anss": 5074,
      "anking": 5075,
      "ansition": 5076,
      "anks": 5077,
      "anches": 5078,
      "ansee": 5079,
      "anitor": 5080,
      "iton": 5081,
      "itus": 5082,
      "itan": 5083,
      "ited": 5084,
      "iture": 5085,
      "itop": 5086,
      "itance": 5087,
      "itron": 5088,
      "itals": 5089,
      "itability": 5090,
      "itory": 5091,
      "itude": 5092,
      "Ġreac": 5093,
      "Ġreve": 5094,
      "Ġrevi": 5095,
      "Ġreds": 5096,
      "Ġreuse": 5097,
      "Ġretention": 5098,
      "Ġresist": 5099,
      "Ġreason": 5100,
      "Ġreactive": 5101,
      "Ġreimaging": 5102,
      "Ġrenaissance": 5103,
      "Ġreflection": 5104,
      "Ġrevis": 5105,
      "Ġretire": 5106,
      "Ġreordering": 5107,
      "Ġinvi": 5108,
      "Ġinstruction": 5109,
      "Ġinsp": 5110,
      "Ġinfer": 5111,
      "Ġinuk": 5112,
      "Ġinitial": 5113,
      "Ġinher": 5114,
      "Ġinjury": 5115,
      "Ġinpain": 5116,
      "Ġinathe": 5117,
      "acing": 5118,
      "acity": 5119,
      "acular": 5120,
      "activity": 5121,
      "acenter": 5122,
      "acuum": 5123,
      "Ġofwi": 5124,
      "Ġprez": 5125,
      "Ġpreem": 5126,
      "Ġpreop": 5127,
      "Ġprevie": 5128,
      "Ġprepar": 5129,
      "Ġprevention": 5130,
      "sial": 5131,
      "sitive": 5132,
      "sians": 5133,
      "sities": 5134,
      "sify": 5135,
      "sible": 5136,
      "size": 5137,
      "sitives": 5138,
      "etric": 5139,
      "etrac": 5140,
      "etary": 5141,
      "ette": 5142,
      "etals": 5143,
      "etero": 5144,
      "etometry": 5145,
      "dicare": 5146,
      "Ġlet": 5147,
      "Ġlever": 5148,
      "Ġleak": 5149,
      "Ġleast": 5150,
      "Ġleaders": 5151,
      "Ġanti": 5152,
      "Ġantim": 5153,
      "Ġangle": 5154,
      "Ġanton": 5155,
      "Ġanticip": 5156,
      "Ġaneury": 5157,
      "Ġannot": 5158,
      "edom": 5159,
      "edging": 5160,
      "ediate": 5161,
      "Ġlearnn": 5162,
      "Ġbec": 5163,
      "Ġbach": 5164,
      "Ġbag": 5165,
      "Ġbut": 5166,
      "Ġbol": 5167,
      "Ġbab": 5168,
      "Ġball": 5169,
      "Ġband": 5170,
      "Ġbak": 5171,
      "Ġbyp": 5172,
      "Ġbart": 5173,
      "Ġbacter": 5174,
      "Ġbok": 5175,
      "Ġbore": 5176,
      "Ġbron": 5177,
      "Ġbare": 5178,
      "Ġbone": 5179,
      "Ġbond": 5180,
      "Ġbrisk": 5181,
      "Ġbagging": 5182,
      "Ġbcs": 5183,
      "Ġbonds": 5184,
      "Ġborro": 5185,
      "Ġbalancing": 5186,
      "omon": 5187,
      "omic": 5188,
      "omen": 5189,
      "omes": 5190,
      "omach": 5191,
      "omers": 5192,
      "omatic": 5193,
      "omics": 5194,
      "omally": 5195,
      "ombies": 5196,
      "Ġnm": 5197,
      "Ġnn": 5198,
      "Ġnp": 5199,
      "Ġnv": 5200,
      "Ġner": 5201,
      "Ġnut": 5202,
      "Ġnra": 5203,
      "Ġnature": 5204,
      "Ġnir": 5205,
      "Ġnud": 5206,
      "Ġnca": 5207,
      "Ġnli": 5208,
      "Ġnsf": 5209,
      "Ġntdb": 5210,
      "Ġnicol": 5211,
      "Ġnester": 5212,
      "Ġnasa": 5213,
      "ecution": 5214,
      "ectivity": 5215,
      "ecurity": 5216,
      "eclick": 5217,
      "entation": 5218,
      "entri": 5219,
      "entang": 5220,
      "entropy": 5221,
      "Ġforage": 5222,
      "Ġforms": 5223,
      "Ġforgeries": 5224,
      "Ġuses": 5225,
      "Ġused": 5226,
      "Ġgs": 5227,
      "Ġgith": 5228,
      "Ġgog": 5229,
      "Ġgol": 5230,
      "Ġgot": 5231,
      "Ġgem": 5232,
      "Ġgim": 5233,
      "Ġgir": 5234,
      "Ġguil": 5235,
      "Ġgaz": 5236,
      "Ġgry": 5237,
      "Ġgust": 5238,
      "Ġgree": 5239,
      "Ġglass": 5240,
      "Ġgold": 5241,
      "Ġgdp": 5242,
      "Ġgyro": 5243,
      "Ġgbm": 5244,
      "Ġgarb": 5245,
      "Ġgrids": 5246,
      "Ġgnss": 5247,
      "Ġgyrom": 5248,
      "Ġgreenh": 5249,
      "Ġgerry": 5250,
      "Ġgentri": 5251,
      "ely": 5252,
      "elines": 5253,
      "eloid": 5254,
      "elings": 5255,
      "elkop": 5256,
      "Ġwas": 5257,
      "Ġwit": 5258,
      "Ġwaf": 5259,
      "Ġwalk": 5260,
      "Ġwater": 5261,
      "Ġwomen": 5262,
      "isa": 5263,
      "isting": 5264,
      "ission": 5265,
      "isms": 5266,
      "islation": 5267,
      "isbe": 5268,
      "istered": 5269,
      "Ġclut": 5270,
      "Ġclosing": 5271,
      "Ġcloth": 5272,
      "Ġusingu": 5273,
      "hez": 5274,
      "herent": 5275,
      "Ġeasy": 5276,
      "Ġejec": 5277,
      "Ġehr": 5278,
      "Ġeyes": 5279,
      "inetics": 5280,
      "Ġiod": 5281,
      "Ġide": 5282,
      "Ġill": 5283,
      "Ġiphone": 5284,
      "Ġigni": 5285,
      "Ġihum": 5286,
      "Ġille": 5287,
      "Ġanddecision": 5288,
      "Ġandroid": 5289,
      "achment": 5290,
      "ago": 5291,
      "agog": 5292,
      "agram": 5293,
      "agger": 5294,
      "aggle": 5295,
      "agaim": 5296,
      "agonfl": 5297,
      "Ġtook": 5298,
      "Ġtoler": 5299,
      "uth": 5300,
      "uter": 5301,
      "utation": 5302,
      "utter": 5303,
      "ĠpredictingÃ¢": 5304,
      "Ġstation": 5305,
      "Ġstent": 5306,
      "Ġstra": 5307,
      "Ġstage": 5308,
      "Ġstum": 5309,
      "Ġstance": 5310,
      "Ġstand": 5311,
      "Ġstard": 5312,
      "Ġstones": 5313,
      "Ġstories": 5314,
      "Ġstress": 5315,
      "Ġlas": 5316,
      "Ġlan": 5317,
      "Ġlig": 5318,
      "Ġlid": 5319,
      "Ġlay": 5320,
      "Ġlos": 5321,
      "Ġlap": 5322,
      "Ġlim": 5323,
      "Ġlary": 5324,
      "Ġlanding": 5325,
      "Ġlump": 5326,
      "Ġlond": 5327,
      "Ġlighting": 5328,
      "Ġlsa": 5329,
      "Ġlapse": 5330,
      "Ġlymph": 5331,
      "Ġlbp": 5332,
      "Ġlvcs": 5333,
      "Ġlonge": 5334,
      "Ġlength": 5335,
      "urni": 5336,
      "urric": 5337,
      "uracy": 5338,
      "urkas": 5339,
      "assisted": 5340,
      "assifier": 5341,
      "ratic": 5342,
      "raul": 5343,
      "rads": 5344,
      "raham": 5345,
      "Ġclassifer": 5346,
      "tician": 5347,
      "Ġthey": 5348,
      "Ġtheft": 5349,
      "Ġtheore": 5350,
      "Ġtheinfer": 5351,
      "ster": 5352,
      "stage": 5353,
      "stop": 5354,
      "stance": 5355,
      "starter": 5356,
      "strapping": 5357,
      "stellations": 5358,
      "storms": 5359,
      "Ġhab": 5360,
      "Ġhop": 5361,
      "Ġhap": 5362,
      "Ġhart": 5363,
      "Ġhong": 5364,
      "Ġhind": 5365,
      "Ġhave": 5366,
      "Ġhamm": 5367,
      "Ġhapp": 5368,
      "Ġhmm": 5369,
      "Ġhound": 5370,
      "Ġharm": 5371,
      "Ġhcd": 5372,
      "Ġhash": 5373,
      "Ġhla": 5374,
      "Ġhrt": 5375,
      "Ġhcm": 5376,
      "Ġhtml": 5377,
      "Ġhonest": 5378,
      "Ġhoriz": 5379,
      "Ġhessian": 5380,
      "Ġhasht": 5381,
      "Ġhetero": 5382,
      "Ġhedging": 5383,
      "Ġhurric": 5384,
      "Ġrecog": 5385,
      "Ġrecep": 5386,
      "Ġrecession": 5387,
      "Ġreceive": 5388,
      "Ġrectang": 5389,
      "Ġrecycl": 5390,
      "Ġrectifying": 5391,
      "tery": 5392,
      "Ġvc": 5393,
      "Ġvul": 5394,
      "Ġvid": 5395,
      "Ġvend": 5396,
      "Ġvess": 5397,
      "Ġvign": 5398,
      "Ġvery": 5399,
      "Ġvital": 5400,
      "Ġvtol": 5401,
      "Ġvenom": 5402,
      "Ġvern": 5403,
      "Ġvarying": 5404,
      "Ġvegas": 5405,
      "Ġvictim": 5406,
      "Ġvenue": 5407,
      "Ġverdic": 5408,
      "Ġvacuum": 5409,
      "Ġvisa": 5410,
      "oder": 5411,
      "odies": 5412,
      "odied": 5413,
      "ĠmachineÃ¢": 5414,
      "ogo": 5415,
      "ogical": 5416,
      "olymph": 5417,
      "oloflow": 5418,
      "olitan": 5419,
      "ula": 5420,
      "ulation": 5421,
      "ulus": 5422,
      "ulsion": 5423,
      "ulated": 5424,
      "ulator": 5425,
      "ulmonary": 5426,
      "Ġclassifications": 5427,
      "cephal": 5428,
      "celeb": 5429,
      "Ġonfacial": 5430,
      "Ġondnet": 5431,
      "Ġontology": 5432,
      "ritic": 5433,
      "ript": 5434,
      "rifier": 5435,
      "ritis": 5436,
      "ritional": 5437,
      "ila": 5438,
      "ilation": 5439,
      "illing": 5440,
      "iliation": 5441,
      "aml": 5442,
      "amer": 5443,
      "amand": 5444,
      "amining": 5445,
      "ambof": 5446,
      "ocent": 5447,
      "ocamp": 5448,
      "ochem": 5449,
      "ociative": 5450,
      "Ġimitation": 5451,
      "Ġimbal": 5452,
      "uns": 5453,
      "unding": 5454,
      "unds": 5455,
      "unking": 5456,
      "entia": 5457,
      "entity": 5458,
      "vex": 5459,
      "veil": 5460,
      "veml": 5461,
      "vemind": 5462,
      "Ġdatacenter": 5463,
      "nific": 5464,
      "romorph": 5465,
      "pper": 5466,
      "ppelkop": 5467,
      "ppocamp": 5468,
      "Ġseti": 5469,
      "Ġselect": 5470,
      "Ġsemic": 5471,
      "Ġselected": 5472,
      "Ġsevere": 5473,
      "Ġsepsis": 5474,
      "Ġseeclick": 5475,
      "igning": 5476,
      "igran": 5477,
      "igious": 5478,
      "igenom": 5479,
      "iggles": 5480,
      "igslist": 5481,
      "Ġdetail": 5482,
      "timing": 5483,
      "timedia": 5484,
      "Ġprovi": 5485,
      "Ġproven": 5486,
      "Ġproof": 5487,
      "Ġprotoc": 5488,
      "Ġprostate": 5489,
      "Ġproactive": 5490,
      "Ġprokary": 5491,
      "Ġprotection": 5492,
      "Ġproxies": 5493,
      "Ġfromfacial": 5494,
      "Ġnear": 5495,
      "Ġneare": 5496,
      "Ġneonat": 5497,
      "quin": 5498,
      "quality": 5499,
      "query": 5500,
      "question": 5501,
      "quisition": 5502,
      "Ġdetectors": 5503,
      "Ġautot": 5504,
      "Ġautum": 5505,
      "uck": 5506,
      "words": 5507,
      "Ġconduc": 5508,
      "Ġconstruc": 5509,
      "Ġconfl": 5510,
      "Ġconferen": 5511,
      "Ġcondi": 5512,
      "Ġconflu": 5513,
      "Ġconsist": 5514,
      "Ġconstructing": 5515,
      "Ġconvention": 5516,
      "Ġconstellations": 5517,
      "Ġconvex": 5518,
      "otation": 5519,
      "oted": 5520,
      "otem": 5521,
      "otech": 5522,
      "otstrapping": 5523,
      "Ġextern": 5524,
      "Ġexraction": 5525,
      "Ġexecution": 5526,
      "Ġexisting": 5527,
      "Ġexamining": 5528,
      "vial": 5529,
      "vide": 5530,
      "Ġdeath": 5531,
      "Ġdebates": 5532,
      "Ġdegree": 5533,
      "Ġgenotyp": 5534,
      "ersonation": 5535,
      "erspell": 5536,
      "Ġappeal": 5537,
      "izer": 5538,
      "izoph": 5539,
      "ectomy": 5540,
      "uma": 5541,
      "ume": 5542,
      "umbn": 5543,
      "umonia": 5544,
      "Ġrl": 5545,
      "Ġrage": 5546,
      "Ġrural": 5547,
      "Ġrcl": 5548,
      "Ġrules": 5549,
      "Ġrbm": 5550,
      "Ġrnase": 5551,
      "Ġracing": 5552,
      "Ġruck": 5553,
      "ognition": 5554,
      "Ġmode": 5555,
      "Ġmodular": 5556,
      "Ġmodality": 5557,
      "Ġmodules": 5558,
      "Ġmodern": 5559,
      "Ġmodification": 5560,
      "Ġmodulation": 5561,
      "ems": 5562,
      "Ġspn": 5563,
      "Ġspent": 5564,
      "Ġspind": 5565,
      "Ġspending": 5566,
      "Ġsplic": 5567,
      "Ġspamm": 5568,
      "Ġsplas": 5569,
      "Ġspoti": 5570,
      "Ġspoof": 5571,
      "cha": 5572,
      "chop": 5573,
      "chain": 5574,
      "channel": 5575,
      "chool": 5576,
      "chmark": 5577,
      "abular": 5578,
      "abund": 5579,
      "ably": 5580,
      "aboo": 5581,
      "Ġchop": 5582,
      "Ġchos": 5583,
      "Ġchip": 5584,
      "Ġchick": 5585,
      "Ġchild": 5586,
      "Ġchances": 5587,
      "Ġchoice": 5588,
      "Ġchord": 5589,
      "Ġchords": 5590,
      "Ġchaotic": 5591,
      "Ġchoose": 5592,
      "Ġchorale": 5593,
      "Ġchunking": 5594,
      "rica": 5595,
      "ricle": 5596,
      "ricts": 5597,
      "ricular": 5598,
      "ricult": 5599,
      "idf": 5600,
      "idents": 5601,
      "Ġanalyst": 5602,
      "Ġanalysts": 5603,
      "Ġanalyze": 5604,
      "upon": 5605,
      "updated": 5606,
      "Ġmoving": 5607,
      "Ġmoba": 5608,
      "Ġmoves": 5609,
      "Ġmosa": 5610,
      "Ġmovmf": 5611,
      "urally": 5612,
      "Ġdivers": 5613,
      "Ġdieg": 5614,
      "Ġdipl": 5615,
      "Ġdipo": 5616,
      "Ġdirt": 5617,
      "Ġdiarization": 5618,
      "Ġdirty": 5619,
      "Ġdialect": 5620,
      "owing": 5621,
      "rensics": 5622,
      "Ġals": 5623,
      "Ġalighting": 5624,
      "Ġalarms": 5625,
      "Ġalbum": 5626,
      "Ġalien": 5627,
      "Ġunion": 5628,
      "Ġunix": 5629,
      "Ġundi": 5630,
      "Ġunits": 5631,
      "Ġuniv": 5632,
      "Ġunlabel": 5633,
      "Ġuntil": 5634,
      "Ġunsy": 5635,
      "Ġunrest": 5636,
      "Ġunmix": 5637,
      "Ġuniqu": 5638,
      "Ġunruff": 5639,
      "Ġunwrapping": 5640,
      "Ġunveil": 5641,
      "ayto": 5642,
      "Ġaccep": 5643,
      "Ġacute": 5644,
      "Ġactu": 5645,
      "Ġacquisition": 5646,
      "Ġanalysiswith": 5647,
      "ends": 5648,
      "endar": 5649,
      "enditure": 5650,
      "Ġcomplement": 5651,
      "Ġcompound": 5652,
      "Ġcomprehension": 5653,
      "Ġcompilation": 5654,
      "eper": 5655,
      "eplay": 5656,
      "option": 5657,
      "opic": 5658,
      "ophy": 5659,
      "opartic": 5660,
      "ervation": 5661,
      "Ġfever": 5662,
      "Ġfeath": 5663,
      "Ġfeelings": 5664,
      "Ġdisk": 5665,
      "Ġdistrib": 5666,
      "Ġdispar": 5667,
      "Ġdistribution": 5668,
      "Ġdisarm": 5669,
      "Ġdisord": 5670,
      "Ġdiseng": 5671,
      "Ġdisplace": 5672,
      "Ġdisjoint": 5673,
      "Ġdisentang": 5674,
      "Ġros": 5675,
      "Ġrole": 5676,
      "Ġrover": 5677,
      "Ġroles": 5678,
      "Ġrough": 5679,
      "Ġrook": 5680,
      "Ġrovers": 5681,
      "Ġrotation": 5682,
      "Ġrosh": 5683,
      "Ġroute": 5684,
      "Ġrocket": 5685,
      "Ġrotten": 5686,
      "Ġsyllab": 5687,
      "Ġsymbol": 5688,
      "Ġfound": 5689,
      "Ġfourni": 5690,
      "Ġfoster": 5691,
      "Ġforensics": 5692,
      "Ġtrap": 5693,
      "Ġtrait": 5694,
      "Ġtraits": 5695,
      "Ġtrades": 5696,
      "Ġtrauma": 5697,
      "Ġexpert": 5698,
      "Ġexposing": 5699,
      "Ġexpressive": 5700,
      "Ġexpenditure": 5701,
      "allic": 5702,
      "allow": 5703,
      "Ġapplicability": 5704,
      "racted": 5705,
      "Ġkme": 5706,
      "Ġkong": 5707,
      "Ġkore": 5708,
      "Ġkind": 5709,
      "Ġkde": 5710,
      "Ġklear": 5711,
      "Ġkpi": 5712,
      "Ġkings": 5713,
      "Ġkne": 5714,
      "Ġkinetics": 5715,
      "Ġkaggle": 5716,
      "Ġkilling": 5717,
      "Ġoptic": 5718,
      "Ġoptum": 5719,
      "examp": 5720,
      "exchange": 5721,
      "version": 5722,
      "Ġenrol": 5723,
      "Ġenable": 5724,
      "Ġenrich": 5725,
      "Ġencoun": 5726,
      "Ġencephal": 5727,
      "wse": 5728,
      "Ġyiel": 5729,
      "Ġyoloflow": 5730,
      "ades": 5731,
      "adruped": 5732,
      "advoc": 5733,
      "Ġimager": 5734,
      "Ġimaggle": 5735,
      "Ġimaginary": 5736,
      "osph": 5737,
      "ostics": 5738,
      "osaur": 5739,
      "osomally": 5740,
      "osquin": 5741,
      "ructure": 5742,
      "thmia": 5743,
      "Ġaristic": 5744,
      "Ġarry": 5745,
      "Ġartery": 5746,
      "Ġneuralnet": 5747,
      "apes": 5748,
      "apses": 5749,
      "apsh": 5750,
      "ellyfish": 5751,
      "Ġcontents": 5752,
      "Ġcontact": 5753,
      "Ġcontours": 5754,
      "Ġcontrast": 5755,
      "Ġcontested": 5756,
      "Ġcontrover": 5757,
      "ignant": 5758,
      "Ġplant": 5759,
      "Ġplsa": 5760,
      "izations": 5761,
      "Ġquark": 5762,
      "Ġquest": 5763,
      "Ġqueu": 5764,
      "Ġqueens": 5765,
      "Ġthose": 5766,
      "Ġthrot": 5767,
      "Ġthreads": 5768,
      "Ġthreats": 5769,
      "Ġtherap": 5770,
      "Ġthanks": 5771,
      "Ġthumbn": 5772,
      "forme": 5773,
      "imes": 5774,
      "image": 5775,
      "Ġdeeping": 5776,
      "Ġdeepey": 5777,
      "Ġdeeplearning": 5778,
      "Ġdeepfire": 5779,
      "Ġdeepcrop": 5780,
      "irt": 5781,
      "irarch": 5782,
      "ugu": 5783,
      "anca": 5784,
      "ancers": 5785,
      "andinavi": 5786,
      "uded": 5787,
      "udging": 5788,
      "udorange": 5789,
      "Ġmultimedia": 5790,
      "Ġrecommended": 5791,
      "phant": 5792,
      "phytoplan": 5793,
      "Ġobstruc": 5794,
      "Ġobvious": 5795,
      "Ġobects": 5796,
      "Ġgambling": 5797,
      "Ġgamma": 5798,
      "Ġgameplay": 5799,
      "ockchain": 5800,
      "eberg": 5801,
      "sements": 5802,
      "seian": 5803,
      "season": 5804,
      "Ġimagereg": 5805,
      "answer": 5806,
      "recasting": 5807,
      "rected": 5808,
      "recover": 5809,
      "recognition": 5810,
      "Ġadam": 5811,
      "Ġadding": 5812,
      "Ġadult": 5813,
      "Ġadmin": 5814,
      "Ġadjec": 5815,
      "Ġadmix": 5816,
      "Ġadenoc": 5817,
      "Ġadaboo": 5818,
      "Ġmarkings": 5819,
      "Ġapproval": 5820,
      "Ġapproxim": 5821,
      "Ġmultiling": 5822,
      "Ġmultipl": 5823,
      "Ġmultifac": 5824,
      "Ġmultilabel": 5825,
      "Ġmultivari": 5826,
      "Ġmultilevel": 5827,
      "Ġmultiagent": 5828,
      "Ġmultiview": 5829,
      "Ġmultilayer": 5830,
      "Ġmultitrack": 5831,
      "Ġmultirel": 5832,
      "Ġmultiband": 5833,
      "Ġmultipath": 5834,
      "Ġmultiforme": 5835,
      "Ġatomic": 5836,
      "Ġtexting": 5837,
      "Ġtextured": 5838,
      "Ġreinstate": 5839,
      "Ġintel": 5840,
      "Ġintension": 5841,
      "Ġintensive": 5842,
      "Ġinteres": 5843,
      "Ġintuition": 5844,
      "Ġimplic": 5845,
      "Ġimplication": 5846,
      "Ġimpersonation": 5847,
      "ipient": 5848,
      "ipses": 5849,
      "Ġscam": 5850,
      "Ġscattering": 5851,
      "Ġscript": 5852,
      "Ġscandinavi": 5853,
      "Ġresnet": 5854,
      "Ġresource": 5855,
      "Ġresampling": 5856,
      "Ġbehol": 5857,
      "Ġemote": 5858,
      "Ġemanations": 5859,
      "Ġemission": 5860,
      "Ġemulsion": 5861,
      "Ġreinforced": 5862,
      "Ġreinforcing": 5863,
      "Ġpositives": 5864,
      "enses": 5865,
      "Ġsentiments": 5866,
      "Ġsentimental": 5867,
      "ardized": 5868,
      "Ġrobo": 5869,
      "akespe": 5870,
      "Ġfacies": 5871,
      "derived": 5872,
      "Ġshale": 5873,
      "Ġshallow": 5874,
      "Ġshirt": 5875,
      "Ġshakespe": 5876,
      "Ġestate": 5877,
      "Ġflying": 5878,
      "Ġflop": 5879,
      "Ġflock": 5880,
      "Ġflare": 5881,
      "Ġflood": 5882,
      "Ġflick": 5883,
      "Ġfloor": 5884,
      "Ġflaring": 5885,
      "Ġflares": 5886,
      "Ġflame": 5887,
      "Ġflutter": 5888,
      "Ġhumming": 5889,
      "Ġoptimum": 5890,
      "Ġoptimised": 5891,
      "Ġoptimizer": 5892,
      "ught": 5893,
      "Ġestimator": 5894,
      "Ġhumanities": 5895,
      "fixÃ¢": 5896,
      "ourced": 5897,
      "ournal": 5898,
      "ubation": 5899,
      "Ġmeter": 5900,
      "Ġmeters": 5901,
      "Ġmetrop": 5902,
      "Ġmetallic": 5903,
      "Ġtrying": 5904,
      "Ġtrna": 5905,
      "Ġtrump": 5906,
      "Ġtrash": 5907,
      "Ġtransition": 5908,
      "Ġtruth": 5909,
      "Ġextensive": 5910,
      "Ġextreme": 5911,
      "Ġperman": 5912,
      "Ġpercent": 5913,
      "Ġperiod": 5914,
      "Ġperturb": 5915,
      "Ġpart": 5916,
      "Ġparity": 5917,
      "Ġparticip": 5918,
      "Ġparser": 5919,
      "architect": 5920,
      "ularised": 5921,
      "Ġcoli": 5922,
      "Ġcolors": 5923,
      "Ġpredicted": 5924,
      "Ġpredictability": 5925,
      "Ġmarketplace": 5926,
      "Ġmaturity": 5927,
      "Ġregressing": 5928,
      "Ġreggae": 5929,
      "Ġregistered": 5930,
      "Ġregimes": 5931,
      "Ġnewspapers": 5932,
      "Ġprobe": 5933,
      "Ġprobing": 5934,
      "Ġprobable": 5935,
      "ionic": 5936,
      "onomy": 5937,
      "onomous": 5938,
      "onomics": 5939,
      "Ġphog": 5940,
      "Ġphonation": 5941,
      "Ġphonem": 5942,
      "Ġforecasts": 5943,
      "Ġhere": 5944,
      "Ġhebre": 5945,
      "Ġheights": 5946,
      "Ġheirarch": 5947,
      "Ġfinance": 5948,
      "Ġfinder": 5949,
      "Ġcharging": 5950,
      "idefin": 5951,
      "Ġyelping": 5952,
      "Ġtransforms": 5953,
      "Ġtranscript": 5954,
      "Ġtransferring": 5955,
      "Ġtransgene": 5956,
      "Ġtranslating": 5957,
      "Ġtransmog": 5958,
      "atile": 5959,
      "coming": 5960,
      "comput": 5961,
      "comple": 5962,
      "combination": 5963,
      "cessing": 5964,
      "rolled": 5965,
      "rological": 5966,
      "Ġinterval": 5967,
      "Ġinternet": 5968,
      "Ġintersti": 5969,
      "Ġintercranial": 5970,
      "Ġinterdis": 5971,
      "Ġinternational": 5972,
      "Ġgenetics": 5973,
      "Ġpatches": 5974,
      "ariate": 5975,
      "Ġtextbax": 5976,
      "kings": 5977,
      "mann": 5978,
      "manual": 5979,
      "Ġjit": 5980,
      "Ġjok": 5981,
      "Ġjunc": 5982,
      "Ġjav": 5983,
      "Ġjust": 5984,
      "Ġjump": 5985,
      "Ġjugg": 5986,
      "Ġjury": 5987,
      "Ġjanitor": 5988,
      "Ġjagaim": 5989,
      "Ġjosquin": 5990,
      "Ġjellyfish": 5991,
      "Ġjudging": 5992,
      "Ġjournal": 5993,
      "integ": 5994,
      "intrus": 5995,
      "Ġsocio": 5996,
      "Ġsocietal": 5997,
      "Ġweblog": 5998,
      "Ġwebsites": 5999,
      "Ġloci": 6000,
      "Ġcharacteristic": 6001,
      "core": 6002,
      "colepsy": 6003,
      "Ġsigns": 6004,
      "Ġexplain": 6005,
      "Ġexplanation": 6006,
      "assho": 6007,
      "associative": 6008,
      "Ġbiology": 6009,
      "Ġbiome": 6010,
      "Ġbikes": 6011,
      "Ġbifur": 6012,
      "Ġbiochem": 6013,
      "Ġbiophy": 6014,
      "Ġbianca": 6015,
      "Ġcontrols": 6016,
      "Ġcontrolling": 6017,
      "Ġcontrolled": 6018,
      "Ġcontrollable": 6019,
      "Ġnouns": 6020,
      "Ġgrape": 6021,
      "Ġgraphe": 6022,
      "Ġwhisk": 6023,
      "Ġwhale": 6024,
      "Ġwhist": 6025,
      "Ġwhois": 6026,
      "structure": 6027,
      "Ġviainitial": 6028,
      "Ġdiffuse": 6029,
      "Ġdiffraction": 6030,
      "Ġdifficul": 6031,
      "Ġtwittersp": 6032,
      "Ġmethylation": 6033,
      "flight": 6034,
      "Ġdyfi": 6035,
      "Ġdysp": 6036,
      "Ġdylan": 6037,
      "Ġoutlines": 6038,
      "Ġoutbre": 6039,
      "Ġoutbrain": 6040,
      "Ġoutdoor": 6041,
      "Ġinformed": 6042,
      "Ġinformative": 6043,
      "Ġinformatics": 6044,
      "agnetic": 6045,
      "Ġextractive": 6046,
      "Ġextractor": 6047,
      "Ġmethodology": 6048,
      "Ġcook": 6049,
      "Ġcouch": 6050,
      "Ġcovari": 6051,
      "Ġcoord": 6052,
      "Ġcointer": 6053,
      "Ġcoreference": 6054,
      "Ġcoherent": 6055,
      "Ġaccents": 6056,
      "Ġaccording": 6057,
      "Ġaccessi": 6058,
      "Ġplaylis": 6059,
      "Ġplayoff": 6060,
      "Ġsenses": 6061,
      "Ġsensed": 6062,
      "Ġcellphone": 6063,
      "Ġdescription": 6064,
      "Ġdesert": 6065,
      "Ġdescending": 6066,
      "Ġdesigning": 6067,
      "Ġworkings": 6068,
      "orested": 6069,
      "Ġdeck": 6070,
      "Ġdecline": 6071,
      "Ġdecode": 6072,
      "Ġdeclassi": 6073,
      "Ġdecoder": 6074,
      "Ġlift": 6075,
      "Ġhands": 6076,
      "Ġhandle": 6077,
      "Ġhandles": 6078,
      "Ġhandling": 6079,
      "Ġhandsh": 6080,
      "ronized": 6081,
      "ronaut": 6082,
      "venet": 6083,
      "Ġreply": 6084,
      "Ġrepeti": 6085,
      "Ġreplication": 6086,
      "Ġreproduce": 6087,
      "Ġreputation": 6088,
      "Ġbob": 6089,
      "Ġboosted": 6090,
      "Ġboarding": 6091,
      "Ġbounding": 6092,
      "Ġbootstrapping": 6093,
      "amps": 6094,
      "Ġcommands": 6095,
      "Ġcommuter": 6096,
      "Ġbehavoir": 6097,
      "Ġperformers": 6098,
      "Ġsocially": 6099,
      "Ġsocialdata": 6100,
      "Ġsocialsense": 6101,
      "axation": 6102,
      "eye": 6103,
      "ensional": 6104,
      "Ġrelational": 6105,
      "Ġreligious": 6106,
      "Ġrelaxation": 6107,
      "Ġautonomy": 6108,
      "Ġunderact": 6109,
      "Ġunderground": 6110,
      "Ġbehaviors": 6111,
      "Ġcoronary": 6112,
      "Ġcorona": 6113,
      "Ġrealignment": 6114,
      "Ġindia": 6115,
      "Ġsearching": 6116,
      "Ġsearches": 6117,
      "Ġability": 6118,
      "Ġabuse": 6119,
      "Ġabraham": 6120,
      "Ġsinger": 6121,
      "Ġsingles": 6122,
      "Ġcancerous": 6123,
      "Ġfilm": 6124,
      "particle": 6125,
      "Ġaml": 6126,
      "Ġamput": 6127,
      "Ġamoun": 6128,
      "Ġasl": 6129,
      "Ġasics": 6130,
      "Ġasym": 6131,
      "Ġascert": 6132,
      "Ġassist": 6133,
      "Ġaspect": 6134,
      "Ġascv": 6135,
      "Ġauditory": 6136,
      "Ġsubset": 6137,
      "Ġsubred": 6138,
      "Ġsubsti": 6139,
      "Ġsubmit": 6140,
      "Ġsubmissions": 6141,
      "Ġsubhal": 6142,
      "Ġsubjective": 6143,
      "Ġsubscription": 6144,
      "Ġsubtraction": 6145,
      "Ġsubstance": 6146,
      "Ġsubstructure": 6147,
      "Ġtrace": 6148,
      "Ġtraces": 6149,
      "Ġdoom": 6150,
      "Ġdoppelkop": 6151,
      "Ġbasic": 6152,
      "Ġbaselines": 6153,
      "Ġtopology": 6154,
      "Ġdiagnostics": 6155,
      "Ġlocalized": 6156,
      "ports": 6157,
      "porally": 6158,
      "value": 6159,
      "valued": 6160,
      "Ġaging": 6161,
      "Ġaggreg": 6162,
      "Ġagricult": 6163,
      "Ġsmooth": 6164,
      "Ġpolice": 6165,
      "Ġpolym": 6166,
      "Ġpolarity": 6167,
      "Ġpollution": 6168,
      "estry": 6169,
      "Ġnonsense": 6170,
      "Ġnonrig": 6171,
      "Ġlovers": 6172,
      "Ġlobe": 6173,
      "Ġvariational": 6174,
      "Ġvariables": 6175,
      "Ġvarietals": 6176,
      "Ġadapatation": 6177,
      "Ġprobabilities": 6178,
      "Ġsingleview": 6179,
      "bait": 6180,
      "output": 6181,
      "Ġsalt": 6182,
      "Ġsaliency": 6183,
      "Ġsalamand": 6184,
      "Ġgross": 6185,
      "Ġgroove": 6186,
      "Ġelectroence": 6187,
      "ighted": 6188,
      "Ġpersonalization": 6189,
      "Ġsurgery": 6190,
      "Ġsurrogate": 6191,
      "Ġsolve": 6192,
      "Ġsolid": 6193,
      "Ġsolutions": 6194,
      "Ġsolomon": 6195,
      "ertroph": 6196,
      "ertagger": 6197,
      "Ġmona": 6198,
      "Ġmoney": 6199,
      "Ġmonoph": 6200,
      "Ġmonetary": 6201,
      "Ġretwe": 6202,
      "Ġbrainwaves": 6203,
      "isho": 6204,
      "Ġstring": 6205,
      "Ġstrong": 6206,
      "Ġhigher": 6207,
      "Ġhighway": 6208,
      "Ġcomputers": 6209,
      "Ġfootstep": 6210,
      "Ġposture": 6211,
      "Ġpostseason": 6212,
      "Ġsimulating": 6213,
      "Ġsimulators": 6214,
      "Ġischem": 6215,
      "Ġramp": 6216,
      "Ġairbn": 6217,
      "Ġairplane": 6218,
      "Ġairfare": 6219,
      "Ġairports": 6220,
      "Ġinvoice": 6221,
      "Ġinvaders": 6222,
      "Ġbeta": 6223,
      "Ġweib": 6224,
      "Ġweighting": 6225,
      "Ġweights": 6226,
      "Ġweighted": 6227,
      "Ġdeposition": 6228,
      "Ġdepressive": 6229,
      "Ġplane": 6230,
      "Ġplanar": 6231,
      "Ġplanner": 6232,
      "Ġplanogram": 6233,
      "Ġunderstand": 6234,
      "ered": 6235,
      "Ġ--": 6236,
      "Ġ27": 6237,
      "Ġ229": 6238,
      "Ġassay": 6239,
      "Ġassault": 6240,
      "Ġreducing": 6241,
      "Ġreductions": 6242,
      "Ġclassified": 6243,
      "Ġreconnaissance": 6244,
      "Ġrisky": 6245,
      "Ġriskiness": 6246,
      "Ġsparsify": 6247,
      "Ġrespond": 6248,
      "Ġresponding": 6249,
      "Ġphoton": 6250,
      "Ġphotonic": 6251,
      "Ġphotometric": 6252,
      "Ġphotography": 6253,
      "Ġphotographic": 6254,
      "eguess": 6255,
      "Ġitalk": 6256,
      "Ġiteration": 6257,
      "Ġitems": 6258,
      "icrobial": 6259,
      "Ġteens": 6260,
      "Ġdefine": 6261,
      "Ġdefect": 6262,
      "Ġdefining": 6263,
      "Ġdefects": 6264,
      "Ġdefaults": 6265,
      "Ġdefense": 6266,
      "Ġdefensive": 6267,
      "Ġdefaul": 6268,
      "Ġdefeating": 6269,
      "Ġdefenses": 6270,
      "Ġdeforested": 6271,
      "Ġarticulated": 6272,
      "Ġnovels": 6273,
      "Ġpopularities": 6274,
      "cloud": 6275,
      "ehold": 6276,
      "nnity": 6277,
      "Ġecological": 6278,
      "Ġecgs": 6279,
      "Ġecommerce": 6280,
      "Ġeconomics": 6281,
      "Ġpeak": 6282,
      "Ġcaries": 6283,
      "Ġcarveml": 6284,
      "Ġmaneu": 6285,
      "Ġmanuscrip": 6286,
      "Ġmicrophone": 6287,
      "Ġmicroflu": 6288,
      "Ġmicroscale": 6289,
      "Ġmicrobl": 6290,
      "Ġmicrobi": 6291,
      "Ġmicrofin": 6292,
      "Ġmicrosurgery": 6293,
      "Ġmicrotiming": 6294,
      "Ġdoctor": 6295,
      "Ġblur": 6296,
      "Ġblog": 6297,
      "Ġblogs": 6298,
      "Ġblowing": 6299,
      "Ġblockchain": 6300,
      "Ġlarvace": 6301,
      "Ġlowest": 6302,
      "Ġrecording": 6303,
      "Ġpaths": 6304,
      "ovascular": 6305,
      "spikes": 6306,
      "Ġtie": 6307,
      "Ġtitle": 6308,
      "Ġschizoph": 6309,
      "Ġmeeting": 6310,
      "Ġmedicare": 6311,
      "Ġlearners": 6312,
      "Ġseparability": 6313,
      "Ġprogress": 6314,
      "Ġprognosis": 6315,
      "Ġnewton": 6316,
      "Ġcollaboration": 6317,
      "ibration": 6318,
      "scaling": 6319,
      "written": 6320,
      "Ġsoaring": 6321,
      "Ġsovere": 6322,
      "Ġsupplement": 6323,
      "Ġprioritization": 6324,
      "Ġcalculating": 6325,
      "Ġcalcium": 6326,
      "Ġcalendar": 6327,
      "Ġtempl": 6328,
      "Ġtempo": 6329,
      "Ġdragonfl": 6330,
      "Ġrestoring": 6331,
      "Ġrestoration": 6332,
      "Ġrestricted": 6333,
      "Ġrestyling": 6334,
      "Ġincline": 6335,
      "Ġinconsist": 6336,
      "Ġincrease": 6337,
      "Ġincidents": 6338,
      "Ġincipient": 6339,
      "Ġincubation": 6340,
      "Ġnaturalization": 6341,
      "elerated": 6342,
      "Ġsequential": 6343,
      "Ġsequoia": 6344,
      "Ġdetermine": 6345,
      "Ġdetermined": 6346,
      "Ġdemysti": 6347,
      "Ġdemonst": 6348,
      "Ġdementia": 6349,
      "Ġsynthe": 6350,
      "Ġsynonyms": 6351,
      "Ġsyndrom": 6352,
      "Ġsyngas": 6353,
      "Ġsynapses": 6354,
      "Ġartifact": 6355,
      "Ġquantity": 6356,
      "Ġquantify": 6357,
      "Ġquantified": 6358,
      "Ġattachment": 6359,
      "Ġpointcloud": 6360,
      "Ġreviewer": 6361,
      "Ġreviewers": 6362,
      "Ġadversarialattack": 6363,
      "fold": 6364,
      "ieving": 6365,
      "play": 6366,
      "rank": 6367,
      "Ġedit": 6368,
      "Ġediting": 6369,
      "Ġeditor": 6370,
      "Ġmaul": 6371,
      "Ġmahj": 6372,
      "Ġinstances": 6373,
      "Ġinstagram": 6374,
      "Ġlego": 6375,
      "Ġlegos": 6376,
      "Ġlegion": 6377,
      "Ġlegged": 6378,
      "Ġlegislation": 6379,
      "Ġlegends": 6380,
      "Ġbayseian": 6381,
      "Ġvoter": 6382,
      "Ġchatting": 6383,
      "Ġchatous": 6384,
      "Ġchatbot": 6385,
      "Ġmatters": 6386,
      "Ġaccelerating": 6387,
      "Ġaccelerated": 6388,
      "Ġelectrical": 6389,
      "aurant": 6390,
      "backed": 6391,
      "background": 6392,
      "driving": 6393,
      "Ġcritical": 6394,
      "Ġcrimin": 6395,
      "Ġtreating": 6396,
      "Ġdelicious": 6397,
      "Ġdelta": 6398,
      "Ġdeliver": 6399,
      "rops": 6400,
      "Ġreminis": 6401,
      "Ġformations": 6402,
      "Ġformant": 6403,
      "istry": 6404,
      "istrator": 6405,
      "Ġstereosc": 6406,
      "rays": 6407,
      "Ġhivemind": 6408,
      "Ġhippocamp": 6409,
      "Ġvoltage": 6410,
      "Ġvolcan": 6411,
      "Ġproposition": 6412,
      "Ġconsorts": 6413,
      "Ġconservation": 6414,
      "Ġforebrain": 6415,
      "Ġenhancers": 6416,
      "Ġcolornn": 6417,
      "Ġrelevancy": 6418,
      "Ġrelevansee": 6419,
      "bleupon": 6420,
      "pretation": 6421,
      "surfing": 6422,
      "tof": 6423,
      "Ġxbo": 6424,
      "Ġxrd": 6425,
      "Ġxenon": 6426,
      "tigan": 6427,
      "orphism": 6428,
      "Ġcanvas": 6429,
      "Ġtumours": 6430,
      "Ġdengue": 6431,
      "Ġdensities": 6432,
      "Ġgoal": 6433,
      "Ġwins": 6434,
      "Ġwinners": 6435,
      "Ġlogical": 6436,
      "Ġlogarith": 6437,
      "Ġdirected": 6438,
      "Ġcomparative": 6439,
      "Ġcompletions": 6440,
      "Ġcompositon": 6441,
      "Ġexperiences": 6442,
      "Ġmulticore": 6443,
      "Ġmultichannel": 6444,
      "Ġmulticarri": 6445,
      "Ġembodied": 6446,
      "Ġrepresented": 6447,
      "Ġrepresentatives": 6448,
      "Ġrelationsin": 6449,
      "Ġgroups": 6450,
      "Ġgrouptime": 6451,
      "Ġgauss": 6452,
      "Ġgaussians": 6453,
      "Ġtissues": 6454,
      "Ġdrugs": 6455,
      "Ġaccelerometers": 6456,
      "Ġframeworks": 6457,
      "object": 6458,
      "obatics": 6459,
      "obfus": 6460,
      "orescence": 6461,
      "Ġqcd": 6462,
      "Ġqbh": 6463,
      "Ġqwop": 6464,
      "Ġentities": 6465,
      "Ġerrors": 6466,
      "Ġsample": 6467,
      "Ġsamples": 6468,
      "Ġpubmed": 6469,
      "Ġcapri": 6470,
      "Ġcapture": 6471,
      "Ġcapsu": 6472,
      "Ġcapacity": 6473,
      "Ġchemistry": 6474,
      "Ġfreak": 6475,
      "Ġfreedom": 6476,
      "Ġmineral": 6477,
      "Ġminority": 6478,
      "Ġoverla": 6479,
      "Ġoverlords": 6480,
      "Ġreduce": 6481,
      "Ġname": 6482,
      "Ġguiding": 6483,
      "Ġguqin": 6484,
      "istortion": 6485,
      "Ġstackover": 6486,
      "Ġstackexchange": 6487,
      "Ġhypertex": 6488,
      "Ġhypertroph": 6489,
      "Ġspeculate": 6490,
      "Ġspectroscopy": 6491,
      "Ġkeratin": 6492,
      "Ġensembles": 6493,
      "Ġimplemented": 6494,
      "Ġshaping": 6495,
      "Ġshapes": 6496,
      "Ġtweet": 6497,
      "Ġcounts": 6498,
      "Ġcounty": 6499,
      "Ġcounsell": 6500,
      "Ġcountry": 6501,
      "Ġdecisions": 6502,
      "Ġpolitician": 6503,
      "Ġearths": 6504,
      "Ġportfolios": 6505,
      "Ġcomparisons": 6506,
      "Ġcategorical": 6507,
      "Ġcategorize": 6508,
      "ives": 6509,
      "rhythmia": 6510,
      "weeper": 6511,
      "Ġ182": 6512,
      "Ġtimbre": 6513,
      "Ġupset": 6514,
      "Ġupdates": 6515,
      "Ġupcoming": 6516,
      "Ġupscaling": 6517,
      "release": 6518,
      "relevant": 6519,
      "Ġaids": 6520,
      "Ġpainting": 6521,
      "Ġcourt": 6522,
      "Ġcourtes": 6523,
      "Ġfrisbe": 6524,
      "Ġfolk": 6525,
      "signal": 6526,
      "Ġanswers": 6527,
      "Ġbotnet": 6528,
      "Ġbottle": 6529,
      "Ġnotes": 6530,
      "Ġnothing": 6531,
      "Ġnumeric": 6532,
      "Ġnumbers": 6533,
      "Ġnumerical": 6534,
      "Ġgeometry": 6535,
      "Ġgeographic": 6536,
      "Ġepic": 6537,
      "Ġepitop": 6538,
      "Ġepigenom": 6539,
      "Ġefficacy": 6540,
      "Ġefficiency": 6541,
      "Ġstarost": 6542,
      "Ġlateral": 6543,
      "Ġhousehold": 6544,
      "Ġhistories": 6545,
      "Ġprofitable": 6546,
      "Ġprofitability": 6547,
      "Ġprojects": 6548,
      "Ġconferec": 6549,
      "Ġmolecule": 6550,
      "Ġknown": 6551,
      "Ġyoung": 6552,
      "Ġobserved": 6553,
      "Ġobservational": 6554,
      "Ġinvestors": 6555,
      "Ġinstrumental": 6556,
      "Ġhotels": 6557,
      "Ġdelayed": 6558,
      "Ġmaximize": 6559,
      "berbul": 6560,
      "prm": 6561,
      "prints": 6562,
      "Ġicon": 6563,
      "Ġicus": 6564,
      "Ġicds": 6565,
      "Ġiceberg": 6566,
      "Ġriver": 6567,
      "Ġrival": 6568,
      "Ġrigs": 6569,
      "reduce": 6570,
      "Ġsnapsh": 6571,
      "Ġsnprints": 6572,
      "Ġcameras": 6573,
      "Ġterminals": 6574,
      "Ġmalignant": 6575,
      "Ġmems": 6576,
      "Ġmemories": 6577,
      "Ġmagnets": 6578,
      "Ġmagnitude": 6579,
      "Ġmagnetometry": 6580,
      "Ġleagues": 6581,
      "Ġglance": 6582,
      "Ġglomer": 6583,
      "Ġgalaxies": 6584,
      "Ġclicked": 6585,
      "Ġclickbait": 6586,
      "Ġequation": 6587,
      "Ġequations": 6588,
      "Ġequities": 6589,
      "Ġequival": 6590,
      "Ġequalization": 6591,
      "Ġstreak": 6592,
      "Ġstreaks": 6593,
      "Ġhygi": 6594,
      "Ġcongested": 6595,
      "Ġcongenital": 6596,
      "Ġspatio": 6597,
      "Ġspatiotem": 6598,
      "Ġchannels": 6599,
      "Ġdiscont": 6600,
      "Ġdiscretization": 6601,
      "Ġdistant": 6602,
      "Ġdistricts": 6603,
      "Ġdistracted": 6604,
      "Ġheadline": 6605,
      "Ġevolutionary": 6606,
      "Ġcharacterizations": 6607,
      "Ġspeakertagger": 6608,
      "Ġdescriptive": 6609,
      "Ġboxes": 6610,
      "Ġassociative": 6611,
      "Ġassociations": 6612,
      "Ġuavs": 6613,
      "Ġfrequencies": 6614,
      "Ġshapelets": 6615,
      "Ġtimeseries": 6616,
      "Ġtimesfrom": 6617,
      "Ġmechanized": 6618,
      "nerability": 6619,
      "smooth": 6620,
      "typeguess": 6621,
      "inuous": 6622,
      "Ġsenate": 6623,
      "Ġsense": 6624,
      "Ġsensitive": 6625,
      "Ġserver": 6626,
      "Ġservers": 6627,
      "Ġservices": 6628,
      "Ġcortana": 6629,
      "Ġcustomers": 6630,
      "Ġfingerspell": 6631,
      "Ġfreeways": 6632,
      "Ġmixed": 6633,
      "Ġmixtures": 6634,
      "Ġmixtap": 6635,
      "Ġrentals": 6636,
      "Ġinsult": 6637,
      "Ġinsuffic": 6638,
      "Ġpresident": 6639,
      "Ġlevels": 6640,
      "Ġbillboard": 6641,
      "Ġgoodreads": 6642,
      "Ġwallpaper": 6643,
      "Ġwells": 6644,
      "Ġwellbores": 6645,
      "Ġlightfield": 6646,
      "Ġcombat": 6647,
      "Ġcombining": 6648,
      "Ġcombinator": 6649,
      "Ġrandall": 6650,
      "Ġallstate": 6651,
      "Ġarchives": 6652,
      "Ġquadcopter": 6653,
      "Ġquadrotor": 6654,
      "Ġquadratic": 6655,
      "Ġintrinsical": 6656,
      "Ġpositioning": 6657,
      "Ġshoe": 6658,
      "Ġshopping": 6659,
      "Ġshooting": 6660,
      "Ġshooter": 6661,
      "Ġregulation": 6662,
      "Ġphysics": 6663,
      "Ġphysical": 6664,
      "Ġphysic": 6665,
      "Ġlifespan": 6666,
      "Ġlifetrac": 6667,
      "Ġsoundtrack": 6668,
      "Ġsoundhound": 6669,
      "Ġautoencoded": 6670,
      "Ġsynthesized": 6671,
      "Ġeffects": 6672,
      "Ġvolumes": 6673,
      "Ġvolumetric": 6674,
      "Ġproperty": 6675,
      "Ġcomplexity": 6676,
      "Ġspecificity": 6677,
      "Ġprofessionals": 6678,
      "Ġacademy": 6679,
      "Ġacademia": 6680,
      "approach": 6681,
      "boat": 6682,
      "lasia": 6683,
      "otiation": 6684,
      "oidectomy": 6685,
      "shm": 6686,
      "short": 6687,
      "sticky": 6688,
      "variation": 6689,
      "variable": 6690,
      "Ġendolymph": 6691,
      "Ġendovascular": 6692,
      "Ġaffect": 6693,
      "Ġaffects": 6694,
      "Ġaffiliation": 6695,
      "Ġsetting": 6696,
      "Ġsettings": 6697,
      "Ġsafer": 6698,
      "Ġpedagog": 6699,
      "Ġpull": 6700,
      "Ġpulmonary": 6701,
      "Ġpotah": 6702,
      "Ġpotayto": 6703,
      "Ġcystic": 6704,
      "Ġcybers": 6705,
      "Ġcytometry": 6706,
      "Ġcytof": 6707,
      "Ġcyberbul": 6708,
      "Ġcrossbar": 6709,
      "arctic": 6710,
      "arcinoma": 6711,
      "Ġtrivial": 6712,
      "Ġtaxonomy": 6713,
      "alogs": 6714,
      "Ġmelodies": 6715,
      "Ġdomains": 6716,
      "itches": 6717,
      "Ġinfants": 6718,
      "Ġinfection": 6719,
      "Ġinfrast": 6720,
      "Ġbanking": 6721,
      "Ġbanner": 6722,
      "Ġbirds": 6723,
      "Ġelements": 6724,
      "Ġelegans": 6725,
      "Ġelephant": 6726,
      "Ġtoolkit": 6727,
      "Ġlisa": 6728,
      "Ġlisten": 6729,
      "Ġlistings": 6730,
      "Ġlandable": 6731,
      "Ġrecipes": 6732,
      "ochondri": 6733,
      "Ġneuromorph": 6734,
      "Ġneurological": 6735,
      "Ġruns": 6736,
      "Ġrunning": 6737,
      "Ġruntime": 6738,
      "Ġchrome": 6739,
      "Ġchromas": 6740,
      "Ġchromosomally": 6741,
      "Ġtravelers": 6742,
      "Ġopenai": 6743,
      "Ġcontinuum": 6744,
      "Ġattentional": 6745,
      "Ġscience": 6746,
      "Ġsciences": 6747,
      "Ġscored": 6748,
      "Ġresonators": 6749,
      "Ġbeatles": 6750,
      "Ġgrades": 6751,
      "Ġgraduate": 6752,
      "Ġlikability": 6753,
      "Ġbookies": 6754,
      "Ġphotoelect": 6755,
      "Ġteaching": 6756,
      "Ġparameterization": 6757,
      "Ġcommunications": 6758,
      "Ġcryptanalysis": 6759,
      "Ġminimizing": 6760,
      "Ġminimize": 6761,
      "Ġdowntime": 6762,
      "Ġdownho": 6763,
      "Ġdownsampling": 6764,
      "Ġarchitectural": 6765,
      "Ġarchitectures": 6766,
      "Ġintrusions": 6767,
      "Ġneighborhoods": 6768,
      "Ġsupervision": 6769,
      "Ġsuperionic": 6770,
      "Ġcandidate": 6771,
      "Ġstrengthening": 6772,
      "Ġvocalizations": 6773,
      "Ġviewpoint": 6774,
      "Ġdiscrimination": 6775,
      "autonomous": 6776,
      "marketing": 6777,
      "tau": 6778,
      "taught": 6779,
      "Ġzero": 6780,
      "Ġzsy": 6781,
      "Ġzoo": 6782,
      "Ġzombies": 6783,
      "Ġrainbow": 6784,
      "Ġafford": 6785,
      "Ġafrica": 6786,
      "Ġswing": 6787,
      "Ġswap": 6788,
      "Ġswarms": 6789,
      "Ġswitches": 6790,
      "Ġshear": 6791,
      "Ġsheep": 6792,
      "Ġsquid": 6793,
      "Ġsquint": 6794,
      "Ġsquares": 6795,
      "Ġsquiggles": 6796,
      "Ġpacific": 6797,
      "Ġpaccar": 6798,
      "Ġpursu": 6799,
      "Ġpurchasing": 6800,
      "Ġpromoting": 6801,
      "Ġpromoted": 6802,
      "Ġpassage": 6803,
      "ennot": 6804,
      "Ġcropping": 6805,
      "Ġcrowds": 6806,
      "Ġcurve": 6807,
      "Ġcurves": 6808,
      "Ġcalls": 6809,
      "Ġfiber": 6810,
      "Ġfibrosis": 6811,
      "Ġtactics": 6812,
      "Ġtactile": 6813,
      "Ġtargeting": 6814,
      "Ġmyers": 6815,
      "Ġmyeloid": 6816,
      "Ġmission": 6817,
      "Ġmisalignment": 6818,
      "Ġmutation": 6819,
      "Ġmutations": 6820,
      "Ġmutant": 6821,
      "Ġmutli": 6822,
      "Ġmade": 6823,
      "Ġderive": 6824,
      "Ġderiving": 6825,
      "Ġreadiness": 6826,
      "Ġreadmit": 6827,
      "Ġreadmissions": 6828,
      "Ġinnocent": 6829,
      "Ġpresentation": 6830,
      "Ġpreschool": 6831,
      "Ġpreviously": 6832,
      "Ġbrowse": 6833,
      "Ġbelong": 6834,
      "Ġbackground": 6835,
      "Ġbackgamm": 6836,
      "Ġbackprop": 6837,
      "Ġnanotech": 6838,
      "Ġnanopartic": 6839,
      "Ġwavefunc": 6840,
      "Ġidf": 6841,
      "Ġidec": 6842,
      "Ġstats": 6843,
      "Ġstanley": 6844,
      "Ġstops": 6845,
      "Ġstoplights": 6846,
      "Ġliterary": 6847,
      "strained": 6848,
      "Ġhalo": 6849,
      "Ġhelper": 6850,
      "Ġhelpfulness": 6851,
      "Ġhacker": 6852,
      "Ġimmediate": 6853,
      "Ġimmigran": 6854,
      "Ġseveral": 6855,
      "Ġconnection": 6856,
      "Ġconnectivity": 6857,
      "Ġconditional": 6858,
      "Ġexample": 6859,
      "Ġspaces": 6860,
      "Ġspaced": 6861,
      "Ġspacex": 6862,
      "Ġspacecraft": 6863,
      "Ġchanging": 6864,
      "Ġkeep": 6865,
      "Ġclusters": 6866,
      "Ġinterests": 6867,
      "Ġbeeradvoc": 6868,
      "Ġperception": 6869,
      "Ġpercepts": 6870,
      "Ġperceptual": 6871,
      "Ġperceptron": 6872,
      "Ġpartitioning": 6873,
      "Ġregularization": 6874,
      "Ġspeeding": 6875,
      "Ġspeedup": 6876,
      "Ġwhole": 6877,
      "Ġindexed": 6878,
      "Ġabsorption": 6879,
      "Ġabsoption": 6880,
      "Ġgroundwater": 6881,
      "Ġissues": 6882,
      "Ġinvariance": 6883,
      "Ġinvariances": 6884,
      "Ġcalibrating": 6885,
      "Ġcalibrate": 6886,
      "Ġattractions": 6887,
      "Ġhandwritingrecognition": 6888,
      "Ġoccluded": 6889,
      "Ġoccupy": 6890,
      "Ġoccupation": 6891,
      "Ġoccupations": 6892,
      "Ġoccupancy": 6893,
      "Ġremoval": 6894,
      "Ġexperimenting": 6895,
      "Ġexperimental": 6896,
      "Ġhyperlin": 6897,
      "Ġhypernym": 6898,
      "Ġfielda": 6899,
      "Ġrigid": 6900,
      "Ġlinkage": 6901,
      "Ġhydroc": 6902,
      "Ġhydrofo": 6903,
      "Ġhydraul": 6904,
      "Ġhydrops": 6905,
      "Ġallocating": 6906,
      "128": 6907,
      "beer": 6908,
      "colorization": 6909,
      "loop": 6910,
      "limb": 6911,
      "maa": 6912,
      "malware": 6913,
      "metric": 6914,
      "metry": 6915,
      "metoo": 6916,
      "machine": 6917,
      "protein": 6918,
      "progressing": 6919,
      "processing": 6920,
      "polation": 6921,
      "temperature": 6922,
      "zygous": 6923,
      "Ġurls": 6924,
      "restricted": 6925,
      "restaurant": 6926,
      "Ġastronaut": 6927,
      "Ġaveraging": 6928,
      "Ġsuggest": 6929,
      "Ġsuggestion": 6930,
      "Ġsuggestions": 6931,
      "Ġppca": 6932,
      "Ġpicture": 6933,
      "Ġpicking": 6934,
      "Ġpictures": 6935,
      "Ġpornography": 6936,
      "Ġparkinson": 6937,
      "Ġpumping": 6938,
      "Ġcsli": 6939,
      "Ġcatalogs": 6940,
      "Ġcuprite": 6941,
      "Ġcartographic": 6942,
      "Ġcartoon": 6943,
      "Ġcrystals": 6944,
      "Ġfarmx": 6945,
      "Ġteller": 6946,
      "Ġturbine": 6947,
      "Ġturbidity": 6948,
      "Ġturbomach": 6949,
      "Ġmartial": 6950,
      "Ġmacroph": 6951,
      "Ġmacroeconomic": 6952,
      "Ġmacmalware": 6953,
      "Ġmedian": 6954,
      "Ġmedium": 6955,
      "Ġmeditation": 6956,
      "Ġmessage": 6957,
      "Ġmessaging": 6958,
      "Ġmessages": 6959,
      "Ġmasterchef": 6960,
      "Ġmammography": 6961,
      "Ġmammograms": 6962,
      "Ġmammalian": 6963,
      "Ġdinner": 6964,
      "Ġdinosaur": 6965,
      "Ġdonations": 6966,
      "Ġdroplet": 6967,
      "Ġodometry": 6968,
      "analytical": 6969,
      "Ġreadings": 6970,
      "Ġrewards": 6971,
      "Ġinverses": 6972,
      "accuracy": 6973,
      "accelerated": 6974,
      "Ġpremium": 6975,
      "Ġlectures": 6976,
      "Ġancestry": 6977,
      "Ġanyway": 6978,
      "Ġanyways": 6979,
      "Ġbenchmark": 6980,
      "Ġbilging": 6981,
      "Ġbilingual": 6982,
      "Ġbilateral": 6983,
      "Ġbubbles": 6984,
      "Ġnlp": 6985,
      "Ġnormal": 6986,
      "Ġnarcolepsy": 6987,
      "ĠnaiÃ¬": 6988,
      "Ġforums": 6989,
      "Ġwait": 6990,
      "Ġwaiting": 6991,
      "Ġwavenet": 6992,
      "Ġwriters": 6993,
      "Ġclimate": 6994,
      "Ġeigenh": 6995,
      "Ġeigenface": 6996,
      "Ġeigennot": 6997,
      "Ġsteps": 6998,
      "Ġstartups": 6999,
      "Ġhopping": 7000,
      "Ġholey": 7001,
      "Ġhounds": 7002,
      "Ġvaluation": 7003,
      "Ġvalues": 7004,
      "Ġvaluations": 7005,
      "ogenous": 7006,
      "Ġdatabases": 7007,
      "Ġproximal": 7008,
      "Ġnegative": 7009,
      "Ġnegatives": 7010,
      "Ġnegotiation": 7011,
      "Ġconverting": 7012,
      "Ġconversion": 7013,
      "Ġconvergence": 7014,
      "Ġconstrained": 7015,
      "Ġdeformation": 7016,
      "Ġrcnn": 7017,
      "Ġsplit": 7018,
      "Ġdivergence": 7019,
      "Ġdiversification": 7020,
      "Ġdivergent": 7021,
      "Ġalternate": 7022,
      "Ġalternating": 7023,
      "Ġalternative": 7024,
      "Ġexpertise": 7025,
      "Ġyear": 7026,
      "Ġyeast": 7027,
      "Ġyeah": 7028,
      "Ġarbitrary": 7029,
      "Ġquarterly": 7030,
      "Ġobstacle": 7031,
      "Ġadvertising": 7032,
      "Ġadvertisers": 7033,
      "Ġadvertisements": 7034,
      "Ġintegration": 7035,
      "Ġintegrated": 7036,
      "Ġintegrative": 7037,
      "Ġscanning": 7038,
      "Ġemergent": 7039,
      "Ġshots": 7040,
      "Ġshared": 7041,
      "Ġfluid": 7042,
      "Ġfluorosc": 7043,
      "Ġfluorescence": 7044,
      "Ġphenotyping": 7045,
      "Ġbiomarker": 7046,
      "Ġgrammar": 7047,
      "Ġgraviton": 7048,
      "Ġcovering": 7049,
      "Ġpersonality": 7050,
      "Ġreliable": 7051,
      "Ġreliability": 7052,
      "Ġreliably": 7053,
      "Ġcorrection": 7054,
      "Ġcorrupt": 7055,
      "Ġcorruption": 7056,
      "Ġcorrupted": 7057,
      "Ġcorresponding": 7058,
      "Ġabstraction": 7059,
      "Ġabstracts": 7060,
      "Ġabstention": 7061,
      "parametric": 7062,
      "Ġassignment": 7063,
      "Ġsubtype": 7064,
      "Ġreturns": 7065,
      "Ġradar": 7066,
      "Ġradiation": 7067,
      "Ġradiography": 7068,
      "Ġradiographic": 7069,
      "Ġweakly": 7070,
      "Ġteleo": 7071,
      "Ġtelevision": 7072,
      "Ġtelemetry": 7073,
      "Ġmanipulator": 7074,
      "Ġbreakout": 7075,
      "speech": 7076,
      "Ġsoftmax": 7077,
      "Ġprimary": 7078,
      "Ġenhancement": 7079,
      "Ġcaptcha": 7080,
      "Ġguidance": 7081,
      "Ġhypersensitivity": 7082,
      "Ġfragile": 7083,
      "Ġepilepsy": 7084,
      "Ġanomalous": 7085,
      "Ġdiscussions": 7086,
      "Ġcorrelated": 7087,
      "Ġcausal": 7088,
      "Ġcausation": 7089,
      "Ġcauses": 7090,
      "Ġcalligraphers": 7091,
      "Ġinnovations": 7092,
      "Ġkeypoints": 7093,
      "ĠissueÃ¢": 7094,
      "Ġaesthetics": 7095,
      "Ġpeptide": 7096,
      "Ġfamilies": 7097,
      "Ġhospitals": 7098,
      "Ġheterogeneity": 7099,
      "Ġempirically": 7100,
      "cvx": 7101,
      "forecasting": 7102,
      "function": 7103,
      "factoid": 7104,
      "linarity": 7105,
      "loss": 7106,
      "mediated": 7107,
      "purchasing": 7108,
      "purpose": 7109,
      "tutes": 7110,
      "tolerant": 7111,
      "vocabular": 7112,
      "wire": 7113,
      "Ġ85": 7114,
      "Ġentropy": 7115,
      "Ġentorhinal": 7116,
      "Ġelo": 7117,
      "Ġelite": 7118,
      "Ġutxo": 7119,
      "Ġutricle": 7120,
      "Ġticket": 7121,
      "Ġtictoc": 7122,
      "inducing": 7123,
      "induced": 7124,
      "regularised": 7125,
      "Ġawards": 7126,
      "Ġskill": 7127,
      "Ġskatbot": 7128,
      "Ġsummary": 7129,
      "Ġsummarization": 7130,
      "Ġpinch": 7131,
      "Ġpinball": 7132,
      "Ġpostings": 7133,
      "Ġpositron": 7134,
      "engine": 7135,
      "Ġcrafting": 7136,
      "Ġcraigslist": 7137,
      "Ġcirculating": 7138,
      "Ġcircle": 7139,
      "Ġcancers": 7140,
      "Ġcancellations": 7141,
      "Ġcascade": 7142,
      "Ġcascades": 7143,
      "arbon": 7144,
      "Ġfractured": 7145,
      "Ġfractures": 7146,
      "Ġtomography": 7147,
      "Ġtomatoes": 7148,
      "Ġturk": 7149,
      "Ġturner": 7150,
      "Ġmenu": 7151,
      "Ġmeniere": 7152,
      "Ġmerging": 7153,
      "Ġmeronyms": 7154,
      "Ġmindmouse": 7155,
      "Ġmindstorms": 7156,
      "Ġmitigation": 7157,
      "Ġmitigating": 7158,
      "Ġmoralmachines": 7159,
      "Ġdream": 7160,
      "Ġdreaming": 7161,
      "Ġdraw": 7162,
      "Ġdrawn": 7163,
      "Ġrequired": 7164,
      "Ġrequests": 7165,
      "Ġindicator": 7166,
      "Ġindicators": 7167,
      "Ġpredator": 7168,
      "Ġpredistortion": 7169,
      "Ġpremature": 7170,
      "Ġpremotor": 7171,
      "Ġanime": 7172,
      "Ġanimation": 7173,
      "Ġbarrel": 7174,
      "Ġbarrett": 7175,
      "Ġburst": 7176,
      "Ġburden": 7177,
      "Ġbigram": 7178,
      "Ġbidder": 7179,
      "Ġbowl": 7180,
      "Ġbuddh": 7181,
      "Ġbudgeting": 7182,
      "Ġbestbu": 7183,
      "Ġbranches": 7184,
      "Ġbranching": 7185,
      "Ġbattery": 7186,
      "Ġbatteries": 7187,
      "Ġnodes": 7188,
      "Ġnodules": 7189,
      "Ġgrant": 7190,
      "Ġgrassho": 7191,
      "Ġwildfire": 7192,
      "Ġwildtype": 7193,
      "Ġeffort": 7194,
      "Ġefforts": 7195,
      "Ġipad": 7196,
      "Ġipca": 7197,
      "Ġionosph": 7198,
      "Ġtourism": 7199,
      "Ġtourist": 7200,
      "Ġtokenization": 7201,
      "Ġclassificiation": 7202,
      "Ġclassificatoin": 7203,
      "stein": 7204,
      "Ġheroes": 7205,
      "Ġrecovery": 7206,
      "Ġrecovering": 7207,
      "Ġventure": 7208,
      "Ġventricular": 7209,
      "Ġverification": 7210,
      "Ġverifying": 7211,
      "ocyte": 7212,
      "ocytes": 7213,
      "Ġsemenfer": 7214,
      "Ġsemidefin": 7215,
      "Ġprospect": 7216,
      "Ġprospects": 7217,
      "Ġprocedures": 7218,
      "Ġprocedurally": 7219,
      "Ġneeds": 7220,
      "Ġneedle": 7221,
      "Ġautoranking": 7222,
      "Ġautorotation": 7223,
      "Ġconcepts": 7224,
      "Ġconceptual": 7225,
      "Ġconcentrated": 7226,
      "Ġconcentrations": 7227,
      "Ġdeparture": 7228,
      "Ġdepartures": 7229,
      "Ġraters": 7230,
      "Ġrnns": 7231,
      "Ġrhythm": 7232,
      "Ġrhythmic": 7233,
      "Ġcompliance": 7234,
      "Ġcompliances": 7235,
      "Ġdistortion": 7236,
      "Ġdistortions": 7237,
      "Ġfovea": 7238,
      "Ġfoveated": 7239,
      "Ġtrailer": 7240,
      "Ġexposure": 7241,
      "Ġexposures": 7242,
      "Ġkicked": 7243,
      "Ġkickstarter": 7244,
      "Ġarctic": 7245,
      "Ġcontamination": 7246,
      "Ġcontaminant": 7247,
      "Ġplatform": 7248,
      "Ġplatforms": 7249,
      "phalogram": 7250,
      "Ġintraday": 7251,
      "Ġintrapari": 7252,
      "Ġimportance": 7253,
      "Ġimportant": 7254,
      "Ġemotions": 7255,
      "Ġemotigan": 7256,
      "Ġrobocop": 7257,
      "Ġrobochef": 7258,
      "Ġfluctuation": 7259,
      "Ġfluctuations": 7260,
      "Ġextraocular": 7261,
      "Ġextrapolation": 7262,
      "Ġperfect": 7263,
      "Ġperfume": 7264,
      "Ġparagraphs": 7265,
      "Ġhearst": 7266,
      "Ġtransformation": 7267,
      "Ġtransformations": 7268,
      "Ġinterpolation": 7269,
      "Ġinterpolating": 7270,
      "Ġexplosive": 7271,
      "Ġexploiting": 7272,
      "Ġdysrhythmia": 7273,
      "Ġdysfunction": 7274,
      "Ġdeceitful": 7275,
      "Ġlikeability": 7276,
      "Ġorigin": 7277,
      "Ġoriginal": 7278,
      "Ġabnormal": 7279,
      "Ġabnormality": 7280,
      "Ġlooping": 7281,
      "Ġelectromyography": 7282,
      "Ġelectromagnetic": 7283,
      "Ġgauge": 7284,
      "Ġgauges": 7285,
      "Ġstylistic": 7286,
      "Ġstylometry": 7287,
      "Ġinvestment": 7288,
      "Ġinvestments": 7289,
      "Ġdependency": 7290,
      "Ġdependencies": 7291,
      "Ġ2016": 7292,
      "Ġ2048": 7293,
      "Ġ2002": 7294,
      "Ġ2006": 7295,
      "Ġblackout": 7296,
      "Ġpathologically": 7297,
      "Ġtitles": 7298,
      "Ġtitanic": 7299,
      "Ġmeaning": 7300,
      "Ġcaloric": 7301,
      "Ġcalorie": 7302,
      "Ġdrumming": 7303,
      "Ġincentive": 7304,
      "Ġincentives": 7305,
      "Ġvoxel": 7306,
      "Ġvoxceleb": 7307,
      "Ġportrait": 7308,
      "Ġportraits": 7309,
      "prediction": 7310,
      "predicting": 7311,
      "Ġenvironmentally": 7312,
      "Ġembryos": 7313,
      "Ġembryonic": 7314,
      "Ġcrfs": 7315,
      "Ġguidewire": 7316,
      "Ġdiscourse": 7317,
      "Ġdiscouraging": 7318,
      "tilityprediction": 7319,
      "Ġuncertainties": 7320,
      "Ġcardiomyopathy": 7321,
      "Ġcardiomyocytes": 7322,
      "Ġelevation": 7323,
      "Ġelevator": 7324,
      "Ġlabeling": 7325,
      "Ġpurchase": 7326,
      "Ġpurchases": 7327,
      "Ġcurriculum": 7328,
      "Ġcurricula": 7329,
      "Ġderivative": 7330,
      "Ġderivatives": 7331,
      "Ġbroadcast": 7332,
      "Ġbroadcasts": 7333,
      "Ġconnected": 7334,
      "Ġhyperparameter": 7335,
      "Ġhyperparameters": 7336,
      "Ġemployer": 7337,
      "Ġemployment": 7338,
      "Ġemployee": 7339,
      "Ġemployees": 7340,
      "Ġcatalysis": 7341,
      "Ġcatalysts": 7342,
      "Ġdropouts": 7343,
      "Ġnorthwest": 7344,
      "Ġcorrespondence": 7345,
      "Ġcorrespondences": 7346,
      "Ġhyperspectralimage": 7347,
      "dynamic": 7348,
      "dynamics": 7349,
      "Ġsilico": 7350,
      "Ġsilicon": 7351,
      "Ġsnippet": 7352,
      "Ġsnippets": 7353,
      "Ġpomdps": 7354,
      "Ġcleaner": 7355,
      "Ġcosmological": 7356,
      "Ġcosmology": 7357,
      "Ġfavorite": 7358,
      "Ġfavorites": 7359,
      "Ġmillions": 7360,
      "Ġbrazilian": 7361,
      "Ġvandalism": 7362,
      "Ġvandalisms": 7363,
      "Ġpathogenicity": 7364,
      "'ÂĻ": 7365,
      "++:": 7366,
      "amentals": 7367,
      "because": 7368,
      "belief": 7369,
      "briggs": 7370,
      "constrained": 7371,
      "crewd": 7372,
      "calibration": 7373,
      "cropping": 7374,
      "calling": 7375,
      "cracks": 7376,
      "ciplinarity": 7377,
      "crystal": 7378,
      "controlled": 7379,
      "dinner": 7380,
      "delay": 7381,
      "dimensional": 7382,
      "earthquake": 7383,
      "gluon": 7384,
      "generated": 7385,
      "galaxy": 7386,
      "homogenous": 7387,
      "idics": 7388,
      "identified": 7389,
      "ively": 7390,
      "lacian": 7391,
      "movie": 7392,
      "matrix": 7393,
      "mandering": 7394,
      "morphological": 7395,
      "margin": 7396,
      "number": 7397,
      "nchronized": 7398,
      "oarthritis": 7399,
      "price": 7400,
      "passed": 7401,
      "pressure": 7402,
      "subject": 7403,
      "sundrum": 7404,
      "sophila": 7405,
      "tzmann": 7406,
      "traditional": 7407,
      "uerite": 7408,
      "volatile": 7409,
      "website": 7410,
      "xible": 7411,
      "zania": 7412,
      "Ġingredi": 7413,
      "Ġromantic": 7414,
      "Ġellipses": 7415,
      "ĠÂĢÂľ": 7416,
      "Ġupper": 7417,
      "instrument": 7418,
      "informed": 7419,
      "invariant": 7420,
      "onductor": 7421,
      "rechorder": 7422,
      "resistant": 7423,
      "remotely": 7424,
      "Ġaortic": 7425,
      "Ġaerobatics": 7426,
      "Ġasia": 7427,
      "Ġarimaa": 7428,
      "Ġaquadruped": 7429,
      "Ġauctions": 7430,
      "Ġaviris": 7431,
      "Ġachieving": 7432,
      "Ġathlete": 7433,
      "Ġaorta": 7434,
      "Ġavalanches": 7435,
      "Ġaptamer": 7436,
      "icipal": 7437,
      "icardia": 7438,
      "Ġsignific": 7439,
      "Ġsectors": 7440,
      "Ġsenders": 7441,
      "Ġsanchez": 7442,
      "Ġsandy": 7443,
      "Ġsailboat": 7444,
      "Ġsatire": 7445,
      "Ġsunday": 7446,
      "Ġsatisfaction": 7447,
      "Ġsliders": 7448,
      "Ġsketching": 7449,
      "Ġsaccade": 7450,
      "Ġsavings": 7451,
      "Ġpenalties": 7452,
      "Ġpalpation": 7453,
      "Ġplead": 7454,
      "Ġpastime": 7455,
      "Ġpetroleum": 7456,
      "Ġpentago": 7457,
      "Ġputative": 7458,
      "Ġpayments": 7459,
      "Ġpractical": 7460,
      "Ġpiazza": 7461,
      "Ġpseudorange": 7462,
      "Ġpackets": 7463,
      "Ġpuncture": 7464,
      "Ġpneumonia": 7465,
      "Ġpegasos": 7466,
      "Ġpiece": 7467,
      "environment": 7468,
      "Ġcasual": 7469,
      "Ġcitations": 7470,
      "Ġcheap": 7471,
      "Ġcodon": 7472,
      "Ġculture": 7473,
      "Ġcoclustering": 7474,
      "Ġcessna": 7475,
      "Ġcracking": 7476,
      "Ġcocktail": 7477,
      "Ġcftr": 7478,
      "Ġcalssification": 7479,
      "Ġcivil": 7480,
      "Ġcycles": 7481,
      "Ġcopters": 7482,
      "Ġcctv": 7483,
      "Ġcuisine": 7484,
      "Ġflexible": 7485,
      "Ġfitting": 7486,
      "Ġfurious": 7487,
      "Ġfriction": 7488,
      "Ġfida": 7489,
      "Ġfirst": 7490,
      "Ġfundamentals": 7491,
      "Ġfrontier": 7492,
      "Ġfisher": 7493,
      "Ġfungal": 7494,
      "Ġfashion": 7495,
      "Ġtesting": 7496,
      "Ġtasks": 7497,
      "Ġtanzania": 7498,
      "Ġtelugu": 7499,
      "Ġtachicardia": 7500,
      "Ġtutoring": 7501,
      "Ġtunes": 7502,
      "Ġtricks": 7503,
      "Ġtapdynamics": 7504,
      "Ġtango": 7505,
      "Ġtensor": 7506,
      "Ġtastes": 7507,
      "Ġtrolls": 7508,
      "Ġtencent": 7509,
      "Ġtropes": 7510,
      "aligned": 7511,
      "Ġmitochondri": 7512,
      "Ġmunicipal": 7513,
      "Ġmidi": 7514,
      "Ġmayhem": 7515,
      "Ġmellitus": 7516,
      "Ġmirror": 7517,
      "Ġmudras": 7518,
      "Ġmastoidectomy": 7519,
      "Ġminesweeper": 7520,
      "Ġmazurkas": 7521,
      "Ġmarguerite": 7522,
      "Ġmckinney": 7523,
      "Ġmuffin": 7524,
      "Ġmfccs": 7525,
      "Ġmicrorna": 7526,
      "Ġdrosophila": 7527,
      "Ġdsift": 7528,
      "Ġdominion": 7529,
      "Ġdutch": 7530,
      "Ġdurak": 7531,
      "Ġdollar": 7532,
      "Ġductility": 7533,
      "Ġdendritic": 7534,
      "Ġdocket": 7535,
      "Ġdensenet": 7536,
      "Ġdroughts": 7537,
      "Ġdorsal": 7538,
      "Ġdermatological": 7539,
      "Ġdummy": 7540,
      "Ġosteoarthritis": 7541,
      "roduct": 7542,
      "anssl": 7543,
      "Ġreactions": 7544,
      "Ġreveal": 7545,
      "Ġreviving": 7546,
      "Ġredshift": 7547,
      "Ġresistance": 7548,
      "Ġreasoning": 7549,
      "Ġrevisiting": 7550,
      "Ġretirement": 7551,
      "Ġinvisible": 7552,
      "Ġinstructional": 7553,
      "Ġinspection": 7554,
      "Ġinuktitut": 7555,
      "Ġinheritance": 7556,
      "Ġinpainting": 7557,
      "Ġpreemptive": 7558,
      "Ġpreoperative": 7559,
      "Ġpreviews": 7560,
      "Ġpreparation": 7561,
      "Ġleveraging": 7562,
      "Ġleakage": 7563,
      "Ġantimicrobial": 7564,
      "Ġantonyms": 7565,
      "Ġanticipating": 7566,
      "Ġaneurysm": 7567,
      "Ġannotating": 7568,
      "Ġlearnng": 7569,
      "Ġbecomes": 7570,
      "Ġboltzmann": 7571,
      "Ġbabi": 7572,
      "Ġbandgap": 7573,
      "Ġbakken": 7574,
      "Ġbyproduct": 7575,
      "Ġbartok": 7576,
      "Ġbacterial": 7577,
      "Ġbokeh": 7578,
      "Ġboredom": 7579,
      "Ġbronchop": 7580,
      "Ġbareisho": 7581,
      "Ġborrow": 7582,
      "Ġnutritional": 7583,
      "Ġnirs": 7584,
      "Ġnudity": 7585,
      "Ġncaa": 7586,
      "Ġnicolas": 7587,
      "Ġnesterov": 7588,
      "Ġgithub": 7589,
      "Ġgogogo": 7590,
      "Ġgolf": 7591,
      "Ġgemini": 7592,
      "Ġgimme": 7593,
      "Ġgirlfriend": 7594,
      "Ġguilty": 7595,
      "Ġgaze": 7596,
      "Ġgryroscope": 7597,
      "Ġgreek": 7598,
      "Ġglasses": 7599,
      "Ġgyroscope": 7600,
      "Ġgarbage": 7601,
      "Ġgyrometer": 7602,
      "Ġgreenhouse": 7603,
      "Ġgerrymandering": 7604,
      "Ġgentrification": 7605,
      "Ġwafer": 7606,
      "Ġcluttered": 7607,
      "Ġclosings": 7608,
      "Ġclothing": 7609,
      "Ġejections": 7610,
      "Ġiodine": 7611,
      "Ġideology": 7612,
      "Ġillusion": 7613,
      "Ġignition": 7614,
      "Ġillegal": 7615,
      "Ġanddecisions": 7616,
      "Ġtolerant": 7617,
      "Ġstratification": 7618,
      "Ġstumbleupon": 7619,
      "Ġstandardized": 7620,
      "Ġstardom": 7621,
      "Ġligands": 7622,
      "Ġlidar": 7623,
      "Ġlayers": 7624,
      "Ġloss": 7625,
      "Ġlaplacian": 7626,
      "Ġlimited": 7627,
      "Ġlarynx": 7628,
      "Ġlondon": 7629,
      "Ġlvcsr": 7630,
      "Ġlongevity": 7631,
      "Ġlengthy": 7632,
      "Ġtheorems": 7633,
      "Ġtheinferred": 7634,
      "Ġhabitable": 7635,
      "Ġhapbeer": 7636,
      "Ġhartree": 7637,
      "Ġhindi": 7638,
      "Ġhamming": 7639,
      "Ġhappier": 7640,
      "Ġharmonization": 7641,
      "Ġhrtf": 7642,
      "Ġhcmv": 7643,
      "Ġhorizon": 7644,
      "Ġhashtag": 7645,
      "Ġheterozygous": 7646,
      "Ġhurricane": 7647,
      "Ġrecogntion": 7648,
      "Ġreceptive": 7649,
      "Ġrecessions": 7650,
      "Ġrectangular": 7651,
      "Ġrecycler": 7652,
      "Ġvulnerability": 7653,
      "Ġvendor": 7654,
      "Ġvessels": 7655,
      "Ġvignette": 7656,
      "Ġvernacular": 7657,
      "Ġverdicts": 7658,
      "Ġondnetwork": 7659,
      "ambofu": 7660,
      "Ġimbalance": 7661,
      "Ġsemiconductor": 7662,
      "ĠseeclickfixÃ¢": 7663,
      "Ġdetails": 7664,
      "Ġproviding": 7665,
      "Ġprotocol": 7666,
      "Ġprokaryotic": 7667,
      "Ġnearest": 7668,
      "Ġneonatal": 7669,
      "Ġautotagging": 7670,
      "Ġautumnnity": 7671,
      "Ġconductors": 7672,
      "Ġconstructed": 7673,
      "Ġconflict": 7674,
      "Ġconferences": 7675,
      "Ġconditions": 7676,
      "Ġconfluent": 7677,
      "Ġconsistent": 7678,
      "Ġexternal": 7679,
      "video": 7680,
      "Ġgenotype": 7681,
      "Ġrclassifier": 7682,
      "Ġrnaseq": 7683,
      "Ġmodularity": 7684,
      "Ġspindle": 7685,
      "Ġsplicing": 7686,
      "Ġspammer": 7687,
      "Ġsplash": 7688,
      "Ġspotify": 7689,
      "Ġspoofing": 7690,
      "abundance": 7691,
      "Ġchopin": 7692,
      "Ġchosen": 7693,
      "Ġchicken": 7694,
      "Ġchildren": 7695,
      "Ġmosaic": 7696,
      "Ġdiversity": 7697,
      "Ġdiego": 7698,
      "Ġdiplomatic": 7699,
      "Ġdipoles": 7700,
      "Ġundirected": 7701,
      "Ġunivariate": 7702,
      "Ġunlabelled": 7703,
      "Ġunsynchronized": 7704,
      "Ġunmixing": 7705,
      "Ġunique": 7706,
      "Ġunruffling": 7707,
      "Ġacceptance": 7708,
      "Ġactuator": 7709,
      "Ġcomplementary": 7710,
      "Ġfeathers": 7711,
      "Ġdistributions": 7712,
      "Ġdisparity": 7713,
      "Ġdisordered": 7714,
      "Ġdisengagement": 7715,
      "Ġdisplacements": 7716,
      "Ġdisentangling": 7717,
      "Ġrookie": 7718,
      "Ġroshambofu": 7719,
      "Ġsyllables": 7720,
      "Ġsymbols": 7721,
      "Ġfoundations": 7722,
      "Ġfournier": 7723,
      "Ġtradeshift": 7724,
      "Ġkmeanssl": 7725,
      "Ġkorean": 7726,
      "Ġkindness": 7727,
      "Ġklearn": 7728,
      "Ġknee": 7729,
      "example": 7730,
      "Ġenrolment": 7731,
      "Ġenriched": 7732,
      "Ġencountered": 7733,
      "Ġencephalographic": 7734,
      "Ġyields": 7735,
      "Ġarrythmia": 7736,
      "Ġcontroversial": 7737,
      "Ġqueuing": 7738,
      "Ġthrottle": 7739,
      "Ġtherapy": 7740,
      "Ġthumbnail": 7741,
      "Ġdeepeyes": 7742,
      "phytoplankton": 7743,
      "Ġobstructive": 7744,
      "Ġimageregion": 7745,
      "recovery": 7746,
      "Ġadministrator": 7747,
      "Ġadjectives": 7748,
      "Ġadmixed": 7749,
      "Ġadenocarcinoma": 7750,
      "Ġadaboost": 7751,
      "Ġapproximate": 7752,
      "Ġmultilingual": 7753,
      "Ġmultiplayer": 7754,
      "Ġmultifaceted": 7755,
      "Ġmultivariate": 7756,
      "Ġmultirelational": 7757,
      "Ġreinstatement": 7758,
      "Ġintensionality": 7759,
      "Ġinteresting": 7760,
      "Ġimplicated": 7761,
      "Ġimplications": 7762,
      "Ġscandinavian": 7763,
      "Ġbeholder": 7764,
      "Ġshakespeare": 7765,
      "Ġfloods": 7766,
      "Ġflickr": 7767,
      "Ġmetropolitan": 7768,
      "Ġpermanent": 7769,
      "Ġpercentage": 7770,
      "Ġperturbed": 7771,
      "Ġparticipation": 7772,
      "architecture": 7773,
      "Ġphoneme": 7774,
      "Ġhebrews": 7775,
      "Ġheirarchical": 7776,
      "Ġtransmogrifier": 7777,
      "computer": 7778,
      "complex": 7779,
      "Ġinterstitial": 7780,
      "Ġinterdisciplinarity": 7781,
      "Ġtextbaxed": 7782,
      "Ġjoke": 7783,
      "Ġjunctions": 7784,
      "Ġjavascript": 7785,
      "Ġjumping": 7786,
      "Ġjuggling": 7787,
      "Ġjagaimo": 7788,
      "Ġjournalism": 7789,
      "integration": 7790,
      "intrusively": 7791,
      "Ġbiomedical": 7792,
      "Ġbikeshare": 7793,
      "Ġbifurcation": 7794,
      "Ġbiochemical": 7795,
      "Ġbiophysics": 7796,
      "Ġgrapevine": 7797,
      "Ġgrapheme": 7798,
      "Ġwhisky": 7799,
      "Ġwhistler": 7800,
      "Ġdifficulty": 7801,
      "Ġtwittersphere": 7802,
      "Ġdysplasia": 7803,
      "Ġoutbreaks": 7804,
      "Ġcouchsurfing": 7805,
      "Ġcovariance": 7806,
      "Ġcoordination": 7807,
      "Ġcointerpretation": 7808,
      "Ġaccessibility": 7809,
      "Ġplaylists": 7810,
      "Ġplayoffs": 7811,
      "Ġdeclassification": 7812,
      "Ġhandshapes": 7813,
      "Ġrepetition": 7814,
      "Ġunderactuated": 7815,
      "Ġamputees": 7816,
      "Ġamount": 7817,
      "Ġasymmetric": 7818,
      "Ġascertaining": 7819,
      "Ġassistants": 7820,
      "Ġascvd": 7821,
      "Ġsubreddit": 7822,
      "Ġsubstitutes": 7823,
      "Ġsubmitted": 7824,
      "Ġsubhalo": 7825,
      "Ġdoppelkopf": 7826,
      "Ġaggregated": 7827,
      "Ġagricultural": 7828,
      "Ġsmoothed": 7829,
      "Ġpolymorphism": 7830,
      "Ġnonrigid": 7831,
      "Ġsalamander": 7832,
      "Ġelectroencephalogram": 7833,
      "Ġmonophonic": 7834,
      "Ġretweeted": 7835,
      "Ġischemic": 7836,
      "Ġramps": 7837,
      "Ġairbnb": 7838,
      "Ġweibo": 7839,
      "Ġdepositional": 7840,
      "Ġdefaulting": 7841,
      "Ġmaneuver": 7842,
      "Ġmanuscripts": 7843,
      "Ġmicrofluidics": 7844,
      "Ġmicroblogs": 7845,
      "Ġmicrobiome": 7846,
      "Ġmicrofinance": 7847,
      "Ġlarvacean": 7848,
      "Ġschizophrenia": 7849,
      "Ġsovereign": 7850,
      "Ġsupplementing": 7851,
      "Ġtemplate": 7852,
      "Ġdragonfly": 7853,
      "Ġinconsistencies": 7854,
      "Ġdemystifying": 7855,
      "Ġdemonstrative": 7856,
      "Ġsynthetic": 7857,
      "Ġsyndrome": 7858,
      "Ġpointclouds": 7859,
      "Ġmahjong": 7860,
      "Ġcriminality": 7861,
      "Ġdeliveries": 7862,
      "Ġreminiscing": 7863,
      "Ġstereoscopic": 7864,
      "Ġhippocampus": 7865,
      "Ġvolcanoes": 7866,
      "Ġconsortship": 7867,
      "Ġrelevanseek": 7868,
      "Ġxbox": 7869,
      "Ġlogarithmic": 7870,
      "Ġmulticarrier": 7871,
      "obfuscation": 7872,
      "Ġcapsule": 7873,
      "Ġoverlapping": 7874,
      "Ġstackoverflow": 7875,
      "Ġhypertext": 7876,
      "Ġhypertrophic": 7877,
      "Ġkeratinocyte": 7878,
      "Ġcounsellor": 7879,
      "Ġcourtesy": 7880,
      "Ġfrisbee": 7881,
      "signaling": 7882,
      "Ġepitopes": 7883,
      "Ġepigenomic": 7884,
      "Ġstarosta": 7885,
      "Ġconferecens": 7886,
      "Ġsnapshot": 7887,
      "Ġglomerulus": 7888,
      "Ġequivalent": 7889,
      "Ġhygiene": 7890,
      "Ġspatiotemporally": 7891,
      "Ġdiscontinuous": 7892,
      "Ġfingerspelling": 7893,
      "Ġmixtape": 7894,
      "Ġinsufficient": 7895,
      "Ġcombinatorail": 7896,
      "Ġintrinsically": 7897,
      "Ġphysician": 7898,
      "Ġlifetracker": 7899,
      "approaches": 7900,
      "Ġendolymphatic": 7901,
      "Ġpedagogy": 7902,
      "Ġpotahto": 7903,
      "Ġcybersecurity": 7904,
      "Ġcyberbullying": 7905,
      "Ġinfrastructure": 7906,
      "Ġneuromorphic": 7907,
      "Ġphotoelectron": 7908,
      "Ġdownhole": 7909,
      "Ġrainbownet": 7910,
      "Ġaffordable": 7911,
      "Ġpursuit": 7912,
      "Ġcrowdsourced": 7913,
      "Ġreadmittance": 7914,
      "Ġbackgammon": 7915,
      "Ġbackpropagation": 7916,
      "Ġnanotechnology": 7917,
      "Ġnanoparticles": 7918,
      "Ġwavefunctions": 7919,
      "Ġimmigrants": 7920,
      "Ġbeeradvocate": 7921,
      "Ġhyperlinks": 7922,
      "Ġhypernymy": 7923,
      "Ġhydrocarbon": 7924,
      "Ġhydrofoil": 7925,
      "Ġhydraulic": 7926,
      "Ġcartoons": 7927,
      "Ġturbomachinery": 7928,
      "Ġmacrophage": 7929,
      "Ġbenchmarks": 7930,
      "Ġeigenhot": 7931,
      "Ġfluoroscopy": 7932,
      "vocabulary": 7933,
      "ĠmeniereÃ¢": 7934,
      "Ġbuddhist": 7935,
      "Ġbestbuy": 7936,
      "Ġgrasshopper": 7937,
      "Ġionospheric": 7938,
      "Ġsemenfertilityprediction": 7939,
      "Ġsemidefinite": 7940,
      "Ġintraparietal": 7941,
      "Ġingredients": 7942,
      "Ġsignificance": 7943,
      "Ġmitochondrial": 7944,
      "Ġbronchopulmonary": 7945
    },
    "merges": [
      "i n",
      "t i",
      "o n",
      "in g",
      "r e",
      "Ġ a",
      "ti on",
      "i c",
      "Ġ s",
      "Ġ p",
      "o r",
      "e n",
      "e r",
      "Ġ c",
      "a r",
      "Ġ f",
      "Ġ t",
      "a l",
      "Ġ m",
      "Ġ d",
      "l e",
      "Ġ o",
      "a tion",
      "e s",
      "a t",
      "u s",
      "a s",
      "r o",
      "a n",
      "i t",
      "Ġ re",
      "Ġ in",
      "a c",
      "Ġo f",
      "Ġp re",
      "s i",
      "e t",
      "d ic",
      "Ġ le",
      "Ġpre dic",
      "n ing",
      "Ġa n",
      "e d",
      "Ġle ar",
      "Ġ b",
      "Ġlear ning",
      "o m",
      "Ġ n",
      "e c",
      "en t",
      "Ġf or",
      "Ġ us",
      "t ing",
      "Ġ g",
      "e l",
      "Ġ w",
      "i s",
      "Ġc l",
      "Ġus ing",
      "h e",
      "Ġ e",
      "in e",
      "ic ation",
      "Ġ i",
      "Ġan d",
      "ac h",
      "a g",
      "Ġt o",
      "u t",
      "Ġpredic ting",
      "Ġs t",
      "Ġ l",
      "u r",
      "f ication",
      "as si",
      "m ent",
      "r a",
      "Ġcl assi",
      "ti c",
      "Ġt he",
      "s t",
      "Ġ h",
      "Ġre c",
      "t er",
      "Ġm ach",
      "it h",
      "Ġ v",
      "o d",
      "Ġmach ine",
      "o g",
      "o l",
      "u l",
      "Ġclassi fication",
      "c e",
      "Ġ on",
      "r i",
      "u re",
      "i l",
      "Ġpredic tion",
      "a m",
      "o c",
      "Ġi m",
      "u n",
      "en ti",
      "v e",
      "Ġd at",
      "n i",
      "ro m",
      "p p",
      "Ġs e",
      "i g",
      "Ġd et",
      "it y",
      "Ġw ith",
      "Ġdat a",
      "ti m",
      "Ġp ro",
      "Ġf rom",
      "Ġn e",
      "q u",
      "Ġdet ec",
      "Ġa ut",
      "u c",
      "w or",
      "Ġc on",
      "o t",
      "Ġe x",
      "Ġn et",
      "v i",
      "Ġd e",
      "Ġg en",
      "wor k",
      "er s",
      "d ing",
      "Ġa pp",
      "i z",
      "ec t",
      "ag e",
      "Ġc om",
      "u m",
      "f or",
      "Ġ r",
      "og ni",
      "Ġnet work",
      "Ġm od",
      "as ed",
      "y ing",
      "Ġrec ogni",
      "si on",
      "e m",
      "Ġmod el",
      "al y",
      "Ġdetec tion",
      "d enti",
      "Ġs p",
      "si s",
      "c h",
      "a b",
      "Ġrecogni tion",
      "Ġc h",
      "Ġi denti",
      "r ic",
      "i d",
      "Ġan aly",
      "u p",
      "Ġm o",
      "ur al",
      "Ġd i",
      "at e",
      "o w",
      "Ġaut om",
      "ti ve",
      "at ing",
      "re n",
      "Ġa l",
      "Ġ un",
      "Ġb ased",
      "a y",
      "Ġa c",
      "re s",
      "Ġanaly sis",
      "en d",
      "Ġcom p",
      "e p",
      "ic al",
      "es s",
      "o p",
      "er v",
      "Ġf e",
      "i al",
      "Ġd is",
      "Ġ ro",
      "Ġs y",
      "Ġf o",
      "o us",
      "Ġt ra",
      "at ure",
      "Ġex p",
      "al l",
      "Ġapp l",
      "f ying",
      "r ac",
      "Ġ k",
      "ec h",
      "vi e",
      "g or",
      "t s",
      "Ġo p",
      "ar k",
      "e x",
      "i a",
      "v er",
      "Ġ en",
      "Ġm us",
      "an ce",
      "w s",
      "Ġ y",
      "a d",
      "f f",
      "Ġim ag",
      "Ġnetwork s",
      "o s",
      "r uc",
      "t h",
      "Ġa r",
      "Ġne ural",
      "m s",
      "om m",
      "a p",
      "el l",
      "Ġcon t",
      "Ġal gor",
      "Ġalgor ith",
      "ig n",
      "Ġfe ature",
      "Ġp l",
      "st em",
      "Ġrec omm",
      "iz ation",
      "Ġsy stem",
      "j ect",
      "Ġ qu",
      "Ġt h",
      "at ed",
      "for m",
      "i m",
      "t ure",
      "Ġde ep",
      "i r",
      "u g",
      "an c",
      "an d",
      "ter ing",
      "u d",
      "Ġm ul",
      "Ġrecomm end",
      "a tic",
      "is ed",
      "i es",
      "ation s",
      "up erv",
      "uperv ised",
      "p h",
      "s s",
      "Ġo b",
      "Ġg am",
      "oc k",
      "e b",
      "s e",
      "an g",
      "tim e",
      "Ġim age",
      "Ġidenti fication",
      "e ren",
      "an s",
      "t or",
      "re c",
      "Ġa d",
      "le c",
      "Ġgen er",
      "Ġm ark",
      "Ġcl us",
      "Ġapp ro",
      "Ġmus ic",
      "Ġmul ti",
      "Ġa t",
      "Ġt ex",
      "Ġre in",
      "Ġin t",
      "Ġim p",
      "ig h",
      "Ġautom atic",
      "Ġimag es",
      "i p",
      "Ġs c",
      "Ġre s",
      "Ġb e",
      "Ġe m",
      "Ġappro ach",
      "Ġrein for",
      "Ġs enti",
      "Ġp o",
      "Ġp ric",
      "en s",
      "le s",
      "Ġst ock",
      "Ġsenti ment",
      "tion s",
      "ar d",
      "Ġt ech",
      "ce ment",
      "Ġro b",
      "Ġclus tering",
      "Ġreinfor cement",
      "a k",
      "l ine",
      "or t",
      "Ġf ac",
      "d er",
      "d uc",
      "Ġs h",
      "res sion",
      "y p",
      "Ġ es",
      "ti v",
      "Ġf l",
      "Ġh um",
      "Ġob ject",
      "u tion",
      "Ġre vie",
      "Ġop tim",
      "ug h",
      "Ġes tim",
      "Ġhum an",
      "f i",
      "o ur",
      "u b",
      "Ġt w",
      "Ġm et",
      "Ġautom ated",
      "u al",
      "v ing",
      "Ġt r",
      "ro ugh",
      "ni qu",
      "Ġex t",
      "Ġmodel s",
      "Ġtech niqu",
      "g ment",
      "Ġp er",
      "Ġp ar",
      "ar ch",
      "Ġb y",
      "ul ar",
      "Ġse gment",
      "d s",
      "g e",
      "v el",
      "Ġc ol",
      "Ġpredic t",
      "el p",
      "Ġst ruc",
      "Ġalgorith ms",
      "Ġmark et",
      "a tive",
      "Ġm at",
      "Ġre g",
      "ac k",
      "ment s",
      "Ġne ws",
      "Ġappl ication",
      "Ġth rough",
      "Ġtechniqu es",
      "s upervised",
      "Ġ time",
      "ar t",
      "as t",
      "Ġpro b",
      "Ġidenti fying",
      "a il",
      "i o",
      "i on",
      "on om",
      "Ġp h",
      "an t",
      "Ġfo rec",
      "Ġfeature s",
      "t ri",
      "Ġ 3",
      "Ġ he",
      "Ġf in",
      "ab il",
      "Ġch ar",
      "id e",
      "Ġy elp",
      "Ġrecommend ation",
      "Ġtr ans",
      "a ti",
      "c om",
      "c ess",
      "in ing",
      "en ce",
      "as ting",
      "ro l",
      "Ġin ter",
      "Ġus er",
      "ol og",
      "Ġgen e",
      "' s",
      "c ri",
      "e as",
      "m e",
      "Ġp at",
      "ar i",
      "ac ter",
      "is tic",
      "Ġe v",
      "Ġtex t",
      "Ġforec asting",
      "k ing",
      "m an",
      "u e",
      "Ġ j",
      "in t",
      "Ġs oc",
      "Ġw eb",
      "Ġl oc",
      "Ġl ang",
      "Ġclassi fying",
      "Ġestim ation",
      "Ġchar acter",
      "Ġlang u",
      "c o",
      "Ġs ign",
      "or s",
      "ra in",
      "ol ution",
      "Ġmodel ing",
      "Ġsp e",
      "Ġexp l",
      "or ing",
      "as s",
      "Ġb i",
      "Ġon line",
      "Ġun supervised",
      "Ġcont rol",
      "Ġrevie ws",
      "Ġsegment ation",
      "Ġlangu age",
      "on g",
      "al ity",
      "Ġd ri",
      "it ter",
      "Ġn o",
      "Ġg ra",
      "Ġw h",
      "st ruc",
      "Ġv ia",
      "Ġdi ff",
      "Ġimp ro",
      "tiv ity",
      "Ġtw itter",
      "Ġmet h",
      "b ased",
      "f l",
      "ic s",
      "Ġd y",
      "Ġo ut",
      "Ġin form",
      "ag n",
      "Ġv ide",
      "un d",
      "Ġdetec ting",
      "Ġr ating",
      "Ġmo vie",
      "Ġgam e",
      "Ġext rac",
      "cri p",
      "Ġmeth od",
      "f eren",
      "Ġs im",
      "en c",
      "Ġc o",
      "ar y",
      "iz ing",
      "Ġac c",
      "Ġtra ding",
      "Ġalgorith m",
      "Ġpl ay",
      "Ġrob ot",
      "h a",
      "i sion",
      "o k",
      "u il",
      "ic e",
      "Ġs ens",
      "Ġc ell",
      "Ġd es",
      "Ġw or",
      "tic al",
      "Ġdiff eren",
      "f t",
      "g y",
      "n am",
      "o re",
      "Ġp ers",
      "Ġd ec",
      "it e",
      "ac e",
      "Ġb uil",
      "Ġl i",
      "Ġh and",
      "Ġgam es",
      "a in",
      "r on",
      "v en",
      "Ġ or",
      "Ġre p",
      "et s",
      "ed ia",
      "Ġb o",
      "ent s",
      "am p",
      "Ġcom m",
      "ab le",
      "anc er",
      "Ġbe ha",
      "Ġper form",
      "Ġstruc ture",
      "tri b",
      "Ġsoc ial",
      "Ġinform ation",
      "a x",
      "e y",
      "l ing",
      "en sion",
      "Ġre l",
      "Ġaut onom",
      "Ġun der",
      "lec t",
      "Ġdy nam",
      "Ġbeha vi",
      "a re",
      "Ġc or",
      "Ġre al",
      "Ġin d",
      "Ġse arch",
      "Ġpric e",
      "Ġvide o",
      "Ġperform ance",
      "Ġautonom ous",
      "Ġbehavi or",
      "v ers",
      "on al",
      "Ġa b",
      "Ġs ing",
      "er m",
      "er y",
      "Ġc ancer",
      "Ġf il",
      "om et",
      "iz ed",
      "Ġac tivity",
      "Ġappl ying",
      "Ġmus ical",
      "ff ic",
      "Ġoptim ization",
      "Ġout com",
      "Ġbuil ding",
      "b all",
      "l ab",
      "p ar",
      "t e",
      "t y",
      "in es",
      "Ġa m",
      "Ġa s",
      "Ġa ud",
      "Ġs upervised",
      "Ġs ub",
      "er ies",
      "Ġt rac",
      "al s",
      "Ġd o",
      "Ġb as",
      "is k",
      "Ġto p",
      "Ġv ect",
      "og ra",
      "Ġdi agn",
      "Ġloc al",
      "Ġspe ech",
      "p or",
      "t en",
      "v al",
      "Ġa g",
      "Ġs m",
      "Ġp ol",
      "Ġp op",
      "Ġt ag",
      "es t",
      "Ġn on",
      "Ġw i",
      "Ġl o",
      "Ġv ari",
      "ul t",
      "il l",
      "un c",
      "Ġexp ression",
      "Ġad ap",
      "lec tion",
      "Ġprob abil",
      "olog ical",
      "Ġsing le",
      "a v",
      "a z",
      "b a",
      "i le",
      "o ut",
      "p on",
      "r y",
      "Ġs v",
      "Ġs al",
      "Ġs ong",
      "Ġpre feren",
      "Ġg ro",
      "is ual",
      "Ġe ar",
      "Ġe lect",
      "Ġst ud",
      "Ġh ow",
      "ter n",
      "Ġpro duc",
      "Ġdis eas",
      "igh t",
      "Ġreg ression",
      "struc tion",
      "Ġextrac tion",
      "crip tion",
      "Ġmethod s",
      "Ġpers onal",
      "c es",
      "i x",
      "i ent",
      "Â Ģ",
      "ti es",
      "Ġs ur",
      "Ġs ol",
      "er t",
      "Ġm on",
      "Ġre t",
      "Ġb rain",
      "Ġg a",
      "is h",
      "Ġst r",
      "Ġst y",
      "Ġh igh",
      "Ġv isual",
      "od ing",
      "Ġse man",
      "Ġpro cess",
      "Ġcomp ut",
      "Ġfo ot",
      "all y",
      "Ġk ey",
      "Ġen g",
      "Ġpo st",
      "Ġsim ul",
      "Ġaud io",
      "ÂĢ Â",
      "Ġseman tic",
      "f y",
      "f ic",
      "i an",
      "o od",
      "v olution",
      "Ġ is",
      "Ġ ra",
      "Ġa ir",
      "Ġt yp",
      "al u",
      "ation al",
      "at or",
      "an ding",
      "Ġin v",
      "Ġb et",
      "Ġus ers",
      "Ġw e",
      "he m",
      "Ġse lection",
      "Ġcon volution",
      "Ġde p",
      "Ġgen re",
      "Ġpl an",
      "Ġgener ation",
      "Ġpric es",
      "ak e",
      "Ġtrans cription",
      "Ġexpl oring",
      "Ġunder st",
      "Ġsm art",
      "Ġfoot ball",
      "e re",
      "g ing",
      "k e",
      "l y",
      "m ension",
      "n a",
      "n el",
      "Ã ¢",
      "Ġ -",
      "Ġ 2",
      "Ġa ss",
      "ic k",
      "er gy",
      "Ġf unc",
      "Ġre duc",
      "Ġn ba",
      "Ġclassi fi",
      "Ġrec on",
      "Ġr an",
      "Ġr isk",
      "Ġsp ar",
      "Ġdi mension",
      "Ġappl i",
      "Ġen ergy",
      "Ġsystem s",
      "Ġres pon",
      "Ġph ot",
      "Ġdri ving",
      "Ġsv m",
      "Ġsal es",
      "Ġstr ate",
      "Ġconvolution al",
      "Ġunderst anding",
      "a ying",
      "e g",
      "o sis",
      "r it",
      "z ing",
      "Ġ it",
      "Ġa i",
      "ic ro",
      "Ġs eries",
      "er i",
      "Ġt e",
      "Ġt ren",
      "at es",
      "us t",
      "si tion",
      "ra ft",
      "Ġrec ur",
      "Ġde f",
      "Ġgen om",
      "ric s",
      "Ġmo ve",
      "Ġar tic",
      "Ġqu es",
      "Ġrecommend ations",
      "ang e",
      "tor s",
      "Ġmat ch",
      "Ġfin ding",
      "abil ity",
      "Ġpat tern",
      "Ġno vel",
      "Ġpop ular",
      "Ġadap tive",
      "Ġprobabil istic",
      "Ġdiseas e",
      "Ġspar se",
      "c l",
      "e h",
      "h ip",
      "n n",
      "o tion",
      "t ural",
      "u ment",
      "Ġ (",
      "Ġ ec",
      "in d",
      "re e",
      "Ġp e",
      "en e",
      "Ġc re",
      "Ġc ar",
      "Ġc ard",
      "Ġf ra",
      "Ġm an",
      "Ġm eas",
      "Ġm icro",
      "Ġd oc",
      "us ion",
      "Ġre le",
      "Ġb l",
      "Ġb re",
      "Ġl ar",
      "Ġl ow",
      "tic s",
      "Ġrec or",
      "ul ts",
      "am et",
      "Ġmo b",
      "Ġy our",
      "Ġcont ent",
      "Ġpl aying",
      "Ġstruc tural",
      "Ġprob le",
      "olog y",
      "Ġpat h",
      "Ġdifferen t",
      "trib ut",
      "ogra ph",
      "Ġdiagn osis",
      "Ġsty le",
      "a ir",
      "h y",
      "m i",
      "n ow",
      "o v",
      "r as",
      "s p",
      "u pp",
      "w ard",
      "Ġ ti",
      "in ess",
      "Ġa re",
      "Ġs ch",
      "Ġm e",
      "Ġd ark",
      "it al",
      "Ġlear n",
      "Ġb us",
      "pp ing",
      "Ġse par",
      "Ġpro g",
      "Ġne w",
      "Ġaut h",
      "Ġtra ffic",
      "Ġem ail",
      "Ġcol lab",
      "Ġimpro ving",
      "Ġrating s",
      "Ġsens or",
      "Ġdes ign",
      "Ġwor d",
      "Ġoutcom es",
      "te in",
      "Ġvect or",
      "Ġpreferen ces",
      "Ġfunc tion",
      "Ġclassifi er",
      "Ġrecon struction",
      "Ġlar ge",
      "Ġcollab or",
      "d i",
      "d it",
      "i b",
      "o tic",
      "o ok",
      "s c",
      "w rit",
      "ti al",
      "Ġs o",
      "Ġs uc",
      "Ġs upp",
      "Ġp ri",
      "er ing",
      "Ġc al",
      "ar ial",
      "Ġt em",
      "Ġd r",
      "at ural",
      "as e",
      "an ti",
      "Ġre st",
      "Ġin c",
      "ac t",
      "si ve",
      "Ġb in",
      "Ġn atural",
      "el er",
      "ra m",
      "Ġv ision",
      "Ġv eh",
      "Ġprediction s",
      "Ġdat as",
      "Ġse qu",
      "Ġdet erm",
      "Ġpro fi",
      "Ġpro tein",
      "Ġaut o",
      "Ġde m",
      "ding s",
      "Ġr ate",
      "Ġfe ed",
      "Ġsy n",
      "Ġar ti",
      "Ġqu anti",
      "eb ook",
      "Ġad vers",
      "Ġat t",
      "Ġpo int",
      "Ġfac ebook",
      "Ġrevie w",
      "Ġgene tic",
      "Ġev alu",
      "Ġam az",
      "Ġtrac king",
      "ÂĢÂ ĭ",
      "Ġtyp e",
      "Ġappli ed",
      "Ġtren ds",
      "Ġmob ile",
      "Ġcollabor ative",
      "Ġsuc cess",
      "Ġveh ic",
      "Ġadvers arial",
      "Ġamaz on",
      "d e",
      "f ol",
      "i e",
      "k ip",
      "p l",
      "r an",
      "t ed",
      "y m",
      "Ġ ed",
      "Ġ Ã¢",
      "on e",
      "Ġp ati",
      "or y",
      "en ding",
      "er r",
      "Ġm a",
      "Ġm ri",
      "Ġd ig",
      "an e",
      "Ġin st",
      "Ġle g",
      "Ġb ay",
      "is m",
      "Ġl ine",
      "Ġh ot",
      "Ġv o",
      "ure s",
      "um p",
      "Ġch at",
      "ren t",
      "Ġop tical",
      "os e",
      "Ġqu ality",
      "anc ial",
      "Ġfac e",
      "Ġfl ight",
      "Ġpar amet",
      "Ġmat ter",
      "Ġfin ancial",
      "Ġwh at",
      "Ġimpro ve",
      "Ġacc eler",
      "Ġhand writ",
      "Ġcomm un",
      "Ġdynam ics",
      "Ġfil tering",
      "Ġtop ic",
      "Ġwi kip",
      "Ġelect ric",
      "Ġstud y",
      "Ġdep th",
      "Ġrespon se",
      "Ġpopular ity",
      "Ġfra me",
      "Ġbre ast",
      "Ġbus iness",
      "Ġsupp ort",
      "Ġwikip edia",
      "a ur",
      "b ack",
      "d ri",
      "f ace",
      "g re",
      "l l",
      "o or",
      "o int",
      "p ut",
      "w ay",
      "Ġ u",
      "Ġ Ċ",
      "Ġs at",
      "Ġp ort",
      "Ġc ri",
      "Ġf ut",
      "Ġf ast",
      "Ġt re",
      "al e",
      "Ġd el",
      "le ment",
      "Ġo c",
      "es ture",
      "at h",
      "ro p",
      "Ġre m",
      "ac tion",
      "Ġof f",
      "Ġfor m",
      "Ġg esture",
      "is t",
      "Ġe ff",
      "Ġst ere",
      "ra y",
      "st s",
      "Ġh i",
      "Ġv ol",
      "Ġpro p",
      "Ġcon s",
      "vi ron",
      "ow er",
      "op le",
      "Ġdis co",
      "Ġdis tribut",
      "Ġfo re",
      "Ġtra ining",
      "Ġen h",
      "ell ite",
      "Ġint o",
      "Ġrob otic",
      "Ġfl ow",
      "Ġoptim al",
      "Ġcol or",
      "Ġsign als",
      "Ġno is",
      "enc y",
      "Ġdynam ic",
      "Ġplan ning",
      "Ġran king",
      "Ġrecur rent",
      "Ġartic les",
      "Ġpattern s",
      "Ġpe ople",
      "Ġrele v",
      "Ġproble m",
      "Ġsepar ation",
      "Ġsat ellite",
      "Ġdistribut ed",
      "b le",
      "c raft",
      "i ties",
      "k s",
      "l ic",
      "n et",
      "n ess",
      "o ir",
      "p re",
      "s ur",
      "t o",
      "y rics",
      "z e",
      "Ġ x",
      "ti g",
      "Ġp ower",
      "or ph",
      "Ġc an",
      "Ġc ity",
      "Ġc are",
      "Ġt um",
      "Ġm edia",
      "Ġd en",
      "as y",
      "ro ss",
      "it co",
      "si an",
      "Ġb itco",
      "Ġus e",
      "Ġg o",
      "Ġw in",
      "Ġst ate",
      "Ġst ore",
      "Ġl og",
      "Ġl yrics",
      "Ġv s",
      "Ġv al",
      "od e",
      "Ġde v",
      "Ġidenti fy",
      "Ġdi rec",
      "res ent",
      "Ġcomp ar",
      "Ġcomp le",
      "Ġcomp os",
      "Ġexp eri",
      "Ġen viron",
      "ell ig",
      "Ġmul tic",
      "Ġrecommend er",
      "eb all",
      "Ġgener al",
      "Ġgener ating",
      "Ġint ellig",
      "Ġsc ene",
      "Ġem b",
      "Ġsh ort",
      "Ġapplication s",
      "Ġhe art",
      "ati s",
      "Ġdri ver",
      "Ġgra ph",
      "Ġrep resent",
      "trib ution",
      "Ġrel ations",
      "Ġbas eball",
      "Ġlocal ization",
      "por al",
      "Ġlo ad",
      "Ġgro up",
      "Ġpersonal ized",
      "Ġga us",
      "Ġcomput er",
      "Ġkey wor",
      "Ġreduc tion",
      "Ġstrate gy",
      "hy th",
      "Ġti ss",
      "Ġprog ram",
      "Ġdr ug",
      "Ġbin ding",
      "Ġvehic le",
      "Ġpati ents",
      "Ġbay es",
      "Ġacceler omet",
      "Ġframe work",
      "Ġstere o",
      "Ġdisco ver",
      "Ġbitco in",
      "0 0",
      "a ve",
      "i ous",
      "i fic",
      "m ri",
      "o b",
      "o res",
      "o ud",
      "p le",
      "r ument",
      "s ing",
      "s es",
      "s em",
      "t ation",
      "t ual",
      "Ġ q",
      "Ġ enti",
      "Ġ err",
      "Ġs our",
      "Ġs amp",
      "Ġp ub",
      "en ge",
      "er arch",
      "Ġc r",
      "Ġc ate",
      "Ġc ap",
      "Ġc hem",
      "Ġf re",
      "Ġf ant",
      "Ġm in",
      "Ġm ining",
      "Ġm ax",
      "le ar",
      "Ġo ver",
      "an nel",
      "it s",
      "it oring",
      "Ġre d",
      "om ain",
      "Ġn am",
      "Ġn fl",
      "ec tive",
      "Ġg p",
      "Ġg u",
      "Ġw ine",
      "is on",
      "is tor",
      "Ġst ack",
      "Ġst atis",
      "ur ing",
      "Ġh yp",
      "ce p",
      "Ġse mi",
      "Ġde vel",
      "age ment",
      "Ġsp ec",
      "Ġsp ect",
      "Ġch all",
      "Ġmo tion",
      "Ġdi ab",
      "erv oir",
      "Ġfo od",
      "Ġk er",
      "Ġen sem",
      "Ġimag ing",
      "os ing",
      "Ġmark ov",
      "Ġat tribution",
      "Ġimp lement",
      "Ġres ervoir",
      "Ġem otion",
      "Ġsh ap",
      "Ġtw e",
      "me ans",
      "Ġcharacter izing",
      "Ġco un",
      "Ġalgorithm ic",
      "Ġdec ision",
      "Ġind oor",
      "Ġoutcom e",
      "Ġag ent",
      "Ġpol i",
      "Ġear th",
      "Ġproduc t",
      "Ġmon itoring",
      "Ġeng ine",
      "Ġques tion",
      "Ġmeas ure",
      "Ġrest aur",
      "Ġdeterm ining",
      "dri ven",
      "Ġport fol",
      "Ġhi erarch",
      "Ġcompar ison",
      "Ġtiss ue",
      "Ġacceleromet er",
      "Ġcate gor",
      "Ġfant asy",
      "Ġdevel op",
      "Ġchall enge",
      "a f",
      "a ult",
      "f ac",
      "i v",
      "l ation",
      "l id",
      "l ow",
      "l ass",
      "l ish",
      "o f",
      "o sition",
      "r al",
      "r hyth",
      "s w",
      "s erv",
      "u ments",
      "w e",
      "Ġ 1",
      "Ġ tim",
      "Ġ up",
      "in ion",
      "on es",
      "on ent",
      "re le",
      "Ġa id",
      "ic es",
      "Ġp ain",
      "or ies",
      "Ġc our",
      "Ġc amp",
      "Ġc oding",
      "Ġf i",
      "Ġf r",
      "Ġf ol",
      "Ġf mri",
      "al th",
      "al ax",
      "Ġm ak",
      "le d",
      "Ġo il",
      "ro ke",
      "an ts",
      "it es",
      "ac y",
[...]
